{
  "version": "1.0",
  "truncation": null,
  "padding": null,
  "added_tokens": [
    {
      "id": 0,
      "content": "[UNK]",
      "single_word": false,
      "lstrip": false,
      "rstrip": false,
      "normalized": false,
      "special": true
    },
    {
      "id": 1,
      "content": "[PAD]",
      "single_word": false,
      "lstrip": false,
      "rstrip": false,
      "normalized": false,
      "special": true
    },
    {
      "id": 2,
      "content": "[NL]",
      "single_word": false,
      "lstrip": false,
      "rstrip": false,
      "normalized": false,
      "special": true
    },
    {
      "id": 3,
      "content": "[endofsong]",
      "single_word": false,
      "lstrip": false,
      "rstrip": false,
      "normalized": false,
      "special": true
    }
  ],
  "normalizer": null,
  "pre_tokenizer": {
    "type": "Whitespace"
  },
  "post_processor": null,
  "decoder": null,
  "model": {
    "type": "WordPiece",
    "unk_token": "[UNK]",
    "continuing_subword_prefix": "##",
    "max_input_chars_per_word": 100,
    "vocab": {
      "[UNK]": 0,
      "[PAD]": 1,
      "[NL]": 2,
      "[endofsong]": 3,
      "!": 4,
      "\"": 5,
      "#": 6,
      "$": 7,
      "%": 8,
      "&": 9,
      "'": 10,
      "(": 11,
      ")": 12,
      "*": 13,
      "+": 14,
      ",": 15,
      "-": 16,
      ".": 17,
      "/": 18,
      "0": 19,
      "1": 20,
      "2": 21,
      "3": 22,
      "4": 23,
      "5": 24,
      "6": 25,
      "7": 26,
      "8": 27,
      "9": 28,
      ":": 29,
      ";": 30,
      "<": 31,
      "=": 32,
      ">": 33,
      "?": 34,
      "@": 35,
      "A": 36,
      "B": 37,
      "C": 38,
      "D": 39,
      "E": 40,
      "F": 41,
      "G": 42,
      "H": 43,
      "I": 44,
      "J": 45,
      "K": 46,
      "L": 47,
      "M": 48,
      "N": 49,
      "O": 50,
      "P": 51,
      "Q": 52,
      "R": 53,
      "S": 54,
      "T": 55,
      "U": 56,
      "V": 57,
      "W": 58,
      "X": 59,
      "Y": 60,
      "Z": 61,
      "[": 62,
      "\\": 63,
      "]": 64,
      "^": 65,
      "_": 66,
      "`": 67,
      "a": 68,
      "b": 69,
      "c": 70,
      "d": 71,
      "e": 72,
      "f": 73,
      "g": 74,
      "h": 75,
      "i": 76,
      "j": 77,
      "k": 78,
      "l": 79,
      "m": 80,
      "n": 81,
      "o": 82,
      "p": 83,
      "q": 84,
      "r": 85,
      "s": 86,
      "t": 87,
      "u": 88,
      "v": 89,
      "w": 90,
      "x": 91,
      "y": 92,
      "z": 93,
      "{": 94,
      "|": 95,
      "}": 96,
      "~": 97,
      "": 98,
      "": 99,
      "": 100,
      "": 101,
      "¡": 102,
      "£": 103,
      "¦": 104,
      "©": 105,
      "¬": 106,
      "®": 107,
      "°": 108,
      "²": 109,
      "´": 110,
      "¶": 111,
      "·": 112,
      "¸": 113,
      "¹": 114,
      "»": 115,
      "¾": 116,
      "¿": 117,
      "Á": 118,
      "Â": 119,
      "Ã": 120,
      "É": 121,
      "Í": 122,
      "×": 123,
      "ß": 124,
      "à": 125,
      "á": 126,
      "â": 127,
      "ã": 128,
      "ä": 129,
      "ç": 130,
      "è": 131,
      "é": 132,
      "ê": 133,
      "í": 134,
      "ï": 135,
      "ñ": 136,
      "ò": 137,
      "ó": 138,
      "ô": 139,
      "ö": 140,
      "ø": 141,
      "ù": 142,
      "ú": 143,
      "ü": 144,
      "ý": 145,
      "Œ": 146,
      "œ": 147,
      "Š": 148,
      "š": 149,
      "ɔ": 150,
      "ɛ": 151,
      "ɲ": 152,
      "ˆ": 153,
      "˜": 154,
      "е": 155,
      "י": 156,
      "ṗ": 157,
      "​": 158,
      "–": 159,
      "—": 160,
      "‘": 161,
      "’": 162,
      "‚": 163,
      "“": 164,
      "”": 165,
      "„": 166,
      "†": 167,
      "…": 168,
      "‰": 169,
      "€": 170,
      "™": 171,
      "﻿": 172,
      "�": 173,
      "##m": 174,
      "##a": 175,
      "##l": 176,
      "##e": 177,
      "##s": 178,
      "##t": 179,
      "##o": 180,
      "##i": 181,
      "##n": 182,
      "##z": 183,
      "##y": 184,
      "##u": 185,
      "##d": 186,
      "##v": 187,
      "##r": 188,
      "##p": 189,
      "##c": 190,
      "##k": 191,
      "##b": 192,
      "##g": 193,
      "##E": 194,
      "##L": 195,
      "##Y": 196,
      "##h": 197,
      "##w": 198,
      "##x": 199,
      "##C": 200,
      "##-": 201,
      "##|": 202,
      "##[": 203,
      "##K": 204,
      "##f": 205,
      "##O": 206,
      "##U": 207,
      "##T": 208,
      "##H": 209,
      "##S": 210,
      "##I": 211,
      "##D": 212,
      "##ê": 213,
      "##q": 214,
      "##ú": 215,
      "##G": 216,
      "##3": 217,
      "##1": 218,
      "##0": 219,
      "##j": 220,
      "##N": 221,
      "##R": 222,
      "##V": 223,
      "##A": 224,
      "##ã": 225,
      "##8": 226,
      "##W": 227,
      "##B": 228,
      "##M": 229,
      "##P": 230,
      "##е": 231,
      "##(": 232,
      "##9": 233,
      "##è": 234,
      "##.": 235,
      "##é": 236,
      "##7": 237,
      "##6": 238,
      "##/": 239,
      "##!": 240,
      "##ô": 241,
      "##2": 242,
      "##?": 243,
      "##5": 244,
      "##": 245,
      "##4": 246,
      "##_": 247,
      "##*": 248,
      "##ï": 249,
      "##\"": 250,
      "##)": 251,
      "##<": 252,
      "##í": 253,
      "##,": 254,
      "##ó": 255,
      "##Ã": 256,
      "##·": 257,
      "##¶": 258,
      "##}": 259,
      "##X": 260,
      "##â": 261,
      "##J": 262,
      "##ö": 263,
      "##~": 264,
      "##¸": 265,
      "##ç": 266,
      "##Â": 267,
      "##{": 268,
      "##á": 269,
      "##F": 270,
      "##Z": 271,
      "##ɛ": 272,
      "##'": 273,
      "##:": 274,
      "##ß": 275,
      "##´": 276,
      "##™": 277,
      "##ñ": 278,
      "##>": 279,
      "##Q": 280,
      "##Œ": 281,
      "##=": 282,
      "##”": 283,
      "##…": 284,
      "##&": 285,
      "##ù": 286,
      "##+": 287,
      "##]": 288,
      "##ø": 289,
      "##`": 290,
      "##ä": 291,
      "##²": 292,
      "##“": 293,
      "##ý": 294,
      "##ɔ": 295,
      "##;": 296,
      "##﻿": 297,
      "##¦": 298,
      "##$": 299,
      "##ˆ": 300,
      "##š": 301,
      "##ü": 302,
      "###": 303,
      "##–": 304,
      "##à": 305,
      "##​": 306,
      "##¿": 307,
      "##\\": 308,
      "##’": 309,
      "##י": 310,
      "##£": 311,
      "##˜": 312,
      "##ò": 313,
      "##¹": 314,
      "##": 315,
      "##¡": 316,
      "##‘": 317,
      "##@": 318,
      "##É": 319,
      "##×": 320,
      "##%": 321,
      "##©": 322,
      "##¾": 323,
      "NL": 324,
      "##ou": 325,
      "##he": 326,
      "##in": 327,
      "you": 328,
      "the": 329,
      "##nd": 330,
      "##er": 331,
      "##on": 332,
      "##at": 333,
      "##ing": 334,
      "##an": 335,
      "##re": 336,
      "##ll": 337,
      "to": 338,
      "##ow": 339,
      "th": 340,
      "##ve": 341,
      "me": 342,
      "##ea": 343,
      "##me": 344,
      "##it": 345,
      "it": 346,
      "##ke": 347,
      "##or": 348,
      "##ee": 349,
      "##st": 350,
      "##ay": 351,
      "##ot": 352,
      "##et": 353,
      "##gh": 354,
      "##ut": 355,
      "on": 356,
      "in": 357,
      "my": 358,
      "##se": 359,
      "li": 360,
      "be": 361,
      "and": 362,
      "lo": 363,
      "##ck": 364,
      "##ver": 365,
      "##is": 366,
      "##ght": 367,
      "##ld": 368,
      "##es": 369,
      "of": 370,
      "##ar": 371,
      "your": 372,
      "##ome": 373,
      "that": 374,
      "st": 375,
      "You": 376,
      "And": 377,
      "##le": 378,
      "##ight": 379,
      "re": 380,
      "wh": 381,
      "ba": 382,
      "##id": 383,
      "##oo": 384,
      "kn": 385,
      "##--": 386,
      "##ake": 387,
      "##as": 388,
      "love": 389,
      "we": 390,
      ")[": 391,
      "##ust": 392,
      "ha": 393,
      "know": 394,
      "for": 395,
      "can": 396,
      "is": 397,
      "##ed": 398,
      "##ong": 399,
      "like": 400,
      "##ith": 401,
      "##ce": 402,
      "don": 403,
      "##ch": 404,
      "sh": 405,
      "all": 406,
      "wan": 407,
      "##ear": 408,
      "##ill": 409,
      "up": 410,
      "do": 411,
      "The": 412,
      "##om": 413,
      "##ir": 414,
      "##na": 415,
      "with": 416,
      "##ur": 417,
      "go": 418,
      "got": 419,
      "##hen": 420,
      "get": 421,
      "##ould": 422,
      "##ad": 423,
      "##en": 424,
      "ll": 425,
      "no": 426,
      "##au": 427,
      "so": 428,
      "##one": 429,
      "##un": 430,
      "just": 431,
      ",[": 432,
      "##ri": 433,
      "##ly": 434,
      "this": 435,
      "##by": 436,
      "##al": 437,
      "##ime": 438,
      "Th": 439,
      "what": 440,
      "##eah": 441,
      "##ra": 442,
      "##op": 443,
      "?[": 444,
      "ne": 445,
      "out": 446,
      "But": 447,
      "##ell": 448,
      "end": 449,
      "##own": 450,
      "oh": 451,
      "##th": 452,
      "##all": 453,
      "##ry": 454,
      "##ind": 455,
      "It": 456,
      "not": 457,
      "her": 458,
      "##ore": 459,
      "see": 460,
      "##ause": 461,
      "##her": 462,
      "](": 463,
      "##rou": 464,
      "##ain": 465,
      "want": 466,
      ".[": 467,
      "##----": 468,
      "##am": 469,
      "##eel": 470,
      "##od": 471,
      "ever": 472,
      "an": 473,
      "##ig": 474,
      "##of": 475,
      "##ic": 476,
      "wor": 477,
      "time": 478,
      "was": 479,
      "some": 480,
      "##song": 481,
      "endof": 482,
      "endofsong": 483,
      "We": 484,
      "al": 485,
      "now": 486,
      "down": 487,
      "ch": 488,
      "say": 489,
      "##ion": 490,
      "Wh": 491,
      "##ame": 492,
      "##way": 493,
      "##ive": 494,
      "hear": 495,
      "feel": 496,
      "ve": 497,
      "one": 498,
      "when": 499,
      "Oh": 500,
      "##ter": 501,
      "##out": 502,
      "baby": 503,
      "##ie": 504,
      "pl": 505,
      "##ide": 506,
      "he": 507,
      "rea": 508,
      "##ood": 509,
      "##eed": 510,
      "make": 511,
      "##rom": 512,
      "back": 513,
      "##eep": 514,
      "##fe": 515,
      "][": 516,
      "let": 517,
      "as": 518,
      "at": 519,
      "##ink": 520,
      "##uck": 521,
      "yeah": 522,
      "are": 523,
      "never": 524,
      "bl": 525,
      "way": 526,
      "##um": 527,
      "wanna": 528,
      "So": 529,
      "come": 530,
      "##ine": 531,
      "##nt": 532,
      "have": 533,
      "##ody": 534,
      "they": 535,
      "##een": 536,
      "gon": 537,
      "##il": 538,
      "##irl": 539,
      "but": 540,
      "la": 541,
      "##us": 542,
      "sa": 543,
      "##ge": 544,
      "every": 545,
      "##here": 546,
      "need": 547,
      "if": 548,
      "take": 549,
      "##ro": 550,
      "##im": 551,
      "there": 552,
      "##ok": 553,
      "she": 554,
      "##pp": 555,
      "Cause": 556,
      "##thing": 557,
      "##ct": 558,
      "When": 559,
      "cl": 560,
      "##ak": 561,
      "ain": 562,
      "from": 563,
      "If": 564,
      "##ess": 565,
      "##art": 566,
      "will": 567,
      "gonna": 568,
      "could": 569,
      "man": 570,
      "..": 571,
      "Don": 572,
      "sp": 573,
      "night": 574,
      "girl": 575,
      "think": 576,
      "right": 577,
      "heart": 578,
      "That": 579,
      "##urn": 580,
      "##and": 581,
      "##old": 582,
      "##itt": 583,
      "ro": 584,
      "day": 585,
      "##ead": 586,
      "##ate": 587,
      "##alk": 588,
      "ab": 589,
      "##oh": 590,
      "life": 591,
      "##igg": 592,
      "been": 593,
      "##end": 594,
      "here": 595,
      "##round": 596,
      "fa": 597,
      "look": 598,
      "##body": 599,
      "##ta": 600,
      "##ick": 601,
      "She": 602,
      "He": 603,
      "who": 604,
      "##ard": 605,
      "how": 606,
      "##ue": 607,
      "away": 608,
      "thing": 609,
      "##oy": 610,
      "good": 611,
      "##are": 612,
      "more": 613,
      "##ven": 614,
      "...": 615,
      "give": 616,
      "##ove": 617,
      "![": 618,
      "##ving": 619,
      "##nder": 620,
      "##--------": 621,
      "about": 622,
      "No": 623,
      "]'": 624,
      "##ound": 625,
      "##ere": 626,
      "ag": 627,
      "by": 628,
      "All": 629,
      "tell": 630,
      "Yeah": 631,
      "##sed": 632,
      "try": 633,
      "fl": 634,
      "too": 635,
      "My": 636,
      "wa": 637,
      "world": 638,
      "In": 639,
      "##ream": 640,
      "To": 641,
      "##ers": 642,
      "bet": 643,
      "##ang": 644,
      "##other": 645,
      "##ittle": 646,
      "keep": 647,
      "Just": 648,
      "##ss": 649,
      "##ap": 650,
      "##el": 651,
      "bre": 652,
      "##rough": 653,
      "ey": 654,
      "##ure": 655,
      "sl": 656,
      "Ba": 657,
      "Li": 658,
      "What": 659,
      "us": 660,
      "off": 661,
      "would": 662,
      "again": 663,
      "around": 664,
      "##hing": 665,
      "##ile": 666,
      "St": 667,
      "On": 668,
      "little": 669,
      "won": 670,
      "or": 671,
      "##ire": 672,
      "hand": 673,
      "tr": 674,
      "##lf": 675,
      "nigg": 676,
      "over": 677,
      "run": 678,
      "##iss": 679,
      "##ble": 680,
      "only": 681,
      "through": 682,
      "said": 683,
      "##ance": 684,
      "ya": 685,
      "This": 686,
      "##lly": 687,
      "##if": 688,
      "com": 689,
      "fuck": 690,
      "am": 691,
      "br": 692,
      "any": 693,
      "##ul": 694,
      "##ent": 695,
      "Now": 696,
      "still": 697,
      "em": 698,
      "##atch": 699,
      "shit": 700,
      "##be": 701,
      "Let": 702,
      "sw": 703,
      "##ough": 704,
      "had": 705,
      "bit": 706,
      "lea": 707,
      "##ast": 708,
      "our": 709,
      "did": 710,
      "call": 711,
      "Sh": 712,
      "long": 713,
      "##ose": 714,
      "##ist": 715,
      "Ever": 716,
      "where": 717,
      "##ree": 718,
      "de": 719,
      "There": 720,
      "##ade": 721,
      "them": 722,
      "light": 723,
      "##onight": 724,
      "##row": 725,
      "They": 726,
      "mind": 727,
      "home": 728,
      "##ways": 729,
      "boy": 730,
      "##ah": 731,
      "Baby": 732,
      "Every": 733,
      "eyes": 734,
      "better": 735,
      "##uch": 736,
      "##ip": 737,
      "##ol": 738,
      "##ite": 739,
      "were": 740,
      "play": 741,
      "##wn": 742,
      "turn": 743,
      "##oney": 744,
      "##ies": 745,
      "Some": 746,
      "fall": 747,
      "put": 748,
      "##ace": 749,
      "bel": 750,
      "cause": 751,
      "then": 752,
      "##ty": 753,
      "sc": 754,
      "##side": 755,
      "hold": 756,
      "##self": 757,
      "sm": 758,
      "find": 759,
      "##riend": 760,
      "head": 761,
      "wait": 762,
      "##ber": 763,
      "##ook": 764,
      "should": 765,
      "hard": 766,
      "##ack": 767,
      "con": 768,
      "than": 769,
      "wr": 770,
      "dream": 771,
      "en": 772,
      "why": 773,
      "##ag": 774,
      "##orn": 775,
      "'[": 776,
      "##ked": 777,
      "really": 778,
      "always": 779,
      "dr": 780,
      "##ew": 781,
      "stop": 782,
      "##day": 783,
      "cra": 784,
      "his": 785,
      "##to": 786,
      "gotta": 787,
      "##get": 788,
      "Be": 789,
      "le": 790,
      "##ull": 791,
      "live": 792,
      "tonight": 793,
      "sk": 794,
      "Like": 795,
      "Do": 796,
      "##ise": 797,
      "Ch": 798,
      "##ation": 799,
      "se": 800,
      "nigga": 801,
      "Can": 802,
      "##)[": 803,
      "##ish": 804,
      "##ock": 805,
      "##ft": 806,
      "##ant": 807,
      "him": 808,
      "##igh": 809,
      "things": 810,
      "##ild": 811,
      "##ice": 812,
      "bad": 813,
      "leave": 814,
      "talk": 815,
      "nothing": 816,
      "With": 817,
      "tw": 818,
      "show": 819,
      "much": 820,
      "friend": 821,
      "##ac": 822,
      "For": 823,
      "##ous": 824,
      "##fore": 825,
      "Come": 826,
      "pre": 827,
      "##our": 828,
      "start": 829,
      "belie": 830,
      "stay": 831,
      "##dy": 832,
      "##zy": 833,
      "ooh": 834,
      "##ds": 835,
      "##ave": 836,
      "##ond": 837,
      "##aking": 838,
      "under": 839,
      "##os": 840,
      "real": 841,
      "su": 842,
      "##ange": 843,
      "into": 844,
      "cry": 845,
      "...[": 846,
      "sun": 847,
      "##ool": 848,
      "##eet": 849,
      "mo": 850,
      "##ease": 851,
      "new": 852,
      "##ought": 853,
      "something": 854,
      "Is": 855,
      "even": 856,
      "gu": 857,
      "ex": 858,
      "##ark": 859,
      "##ms": 860,
      "##ther": 861,
      "made": 862,
      "##ever": 863,
      "name": 864,
      "rock": 865,
      "Your": 866,
      "these": 867,
      "believe": 868,
      "walk": 869,
      "Who": 870,
      "##ath": 871,
      "everything": 872,
      "part": 873,
      "face": 874,
      "##ity": 875,
      "##eop": 876,
      "##oom": 877,
      "##oll": 878,
      "sing": 879,
      "##eople": 880,
      "hop": 881,
      "care": 882,
      "##ting": 883,
      "pr": 884,
      "Got": 885,
      "Take": 886,
      "str": 887,
      "going": 888,
      "Love": 889,
      "high": 890,
      "da": 891,
      "gone": 892,
      "##ars": 893,
      "work": 894,
      "How": 895,
      "break": 896,
      "body": 897,
      "##ump": 898,
      "inside": 899,
      "alone": 900,
      "money": 901,
      "mean": 902,
      "stand": 903,
      "hur": 904,
      "happ": 905,
      "crazy": 906,
      "##ears": 907,
      "mine": 908,
      "bitch": 909,
      "##hh": 910,
      "feeling": 911,
      "Hey": 912,
      "beat": 913,
      "##ning": 914,
      "##vin": 915,
      "place": 916,
      "na": 917,
      "before": 918,
      "Ooh": 919,
      "##time": 920,
      "hands": 921,
      "Get": 922,
      "Well": 923,
      "##ouch": 924,
      "other": 925,
      "last": 926,
      "af": 927,
      "ma": 928,
      "##est": 929,
      "same": 930,
      "song": 931,
      "qu": 932,
      "ar": 933,
      "wo": 934,
      "##eal": 935,
      "fire": 936,
      "bu": 937,
      "##ady": 938,
      "##ass": 939,
      "dance": 940,
      "Where": 941,
      "##mber": 942,
      "di": 943,
      "##pl": 944,
      "change": 945,
      "##ma": 946,
      "free": 947,
      "old": 948,
      "##----------------": 949,
      "hey": 950,
      "\"[": 951,
      "own": 952,
      "thought": 953,
      "un": 954,
      "##che": 955,
      "people": 956,
      "Why": 957,
      "wrong": 958,
      "gl": 959,
      "side": 960,
      "another": 961,
      "##aybe": 962,
      "##oot": 963,
      "##ng": 964,
      "##pe": 965,
      "stre": 966,
      "left": 967,
      "pain": 968,
      "tri": 969,
      "rain": 970,
      "fight": 971,
      "Look": 972,
      "die": 973,
      "watch": 974,
      "bea": 975,
      "myself": 976,
      "without": 977,
      "Then": 978,
      "ass": 979,
      "hit": 980,
      "tra": 981,
      "##member": 982,
      "game": 983,
      "An": 984,
      "ah": 985,
      "move": 986,
      "##right": 987,
      "##anc": 988,
      "touch": 989,
      "gre": 990,
      "che": 991,
      "enough": 992,
      "fore": 993,
      "##ts": 994,
      "fly": 995,
      "##irst": 996,
      "pro": 997,
      "lost": 998,
      "##usic": 999,
      "##ne": 1000,
      "po": 1001,
      "Not": 1002,
      "##ub": 1003,
      "##atter": 1004,
      "sou": 1005,
      "burn": 1006,
      "best": 1007,
      "sky": 1008,
      "##per": 1009,
      "Tell": 1010,
      "ho": 1011,
      "done": 1012,
      "God": 1013,
      "kill": 1014,
      "##gether": 1015,
      "##xt": 1016,
      "##ash": 1017,
      "hot": 1018,
      "roll": 1019,
      "##mer": 1020,
      "##iz": 1021,
      "As": 1022,
      "told": 1023,
      "One": 1024,
      "##ug": 1025,
      "coming": 1026,
      "uh": 1027,
      "wish": 1028,
      "dis": 1029,
      "##ep": 1030,
      "##less": 1031,
      "##pen": 1032,
      "##ather": 1033,
      "has": 1034,
      "miss": 1035,
      "##ab": 1036,
      "bring": 1037,
      "true": 1038,
      "two": 1039,
      "##roke": 1040,
      "kiss": 1041,
      "fun": 1042,
      "might": 1043,
      "##son": 1044,
      "big": 1045,
      "##em": 1046,
      "##lp": 1047,
      "bot": 1048,
      "im": 1049,
      "wind": 1050,
      "dri": 1051,
      "##age": 1052,
      "car": 1053,
      "##ater": 1054,
      "door": 1055,
      "gr": 1056,
      "##rist": 1057,
      "together": 1058,
      "soul": 1059,
      "##ord": 1060,
      "##ud": 1061,
      "el": 1062,
      "cr": 1063,
      "first": 1064,
      "##hy": 1065,
      "friends": 1066,
      "Pl": 1067,
      "##ally": 1068,
      "##cause": 1069,
      "someone": 1070,
      "cold": 1071,
      "does": 1072,
      "mother": 1073,
      "##ory": 1074,
      "Say": 1075,
      "must": 1076,
      "##sh": 1077,
      "##ach": 1078,
      "nobody": 1079,
      "didn": 1080,
      "##les": 1081,
      "knew": 1082,
      "##ict": 1083,
      "co": 1084,
      "Go": 1085,
      "forever": 1086,
      "alright": 1087,
      "used": 1088,
      "war": 1089,
      "comes": 1090,
      "##asy": 1091,
      "dark": 1092,
      "came": 1093,
      "beaut": 1094,
      "broke": 1095,
      "##times": 1096,
      "sound": 1097,
      "##eak": 1098,
      "close": 1099,
      "',": 1100,
      "ready": 1101,
      "bout": 1102,
      "##ness": 1103,
      "remember": 1104,
      "lose": 1105,
      "top": 1106,
      "matter": 1107,
      "sleep": 1108,
      "##ling": 1109,
      "far": 1110,
      "hope": 1111,
      "ri": 1112,
      "bra": 1113,
      "please": 1114,
      "##uh": 1115,
      "##iful": 1116,
      "while": 1117,
      "##qu": 1118,
      "per": 1119,
      "hell": 1120,
      "##ount": 1121,
      "lear": 1122,
      "their": 1123,
      "Girl": 1124,
      "well": 1125,
      "found": 1126,
      "waiting": 1127,
      "act": 1128,
      "##uz": 1129,
      "street": 1130,
      "##ush": 1131,
      "##sten": 1132,
      "pret": 1133,
      "kind": 1134,
      "##amn": 1135,
      "looking": 1136,
      "smile": 1137,
      "round": 1138,
      "else": 1139,
      "mon": 1140,
      "Never": 1141,
      "##ff": 1142,
      "Or": 1143,
      "knows": 1144,
      "ask": 1145,
      "beg": 1146,
      "##fect": 1147,
      "Bl": 1148,
      "hurt": 1149,
      "words": 1150,
      "Give": 1151,
      "Make": 1152,
      "yo": 1153,
      "ride": 1154,
      "##aught": 1155,
      "goes": 1156,
      "##ings": 1157,
      "help": 1158,
      "blow": 1159,
      "days": 1160,
      "##oke": 1161,
      "##ses": 1162,
      "niggas": 1163,
      "##where": 1164,
      "##uth": 1165,
      "wonder": 1166,
      "Al": 1167,
      "##tin": 1168,
      "young": 1169,
      "gun": 1170,
      "gra": 1171,
      "rhy": 1172,
      "hea": 1173,
      "##ps": 1174,
      "##ix": 1175,
      "learn": 1176,
      "##ollow": 1177,
      "open": 1178,
      "trying": 1179,
      "its": 1180,
      "##iff": 1181,
      "music": 1182,
      "flo": 1183,
      "yourself": 1184,
      "##stand": 1185,
      "shot": 1186,
      "##ans": 1187,
      "next": 1188,
      "babe": 1189,
      "##oman": 1190,
      "times": 1191,
      "lone": 1192,
      "lights": 1193,
      "##mas": 1194,
      "##able": 1195,
      "##app": 1196,
      "blue": 1197,
      "sweet": 1198,
      "party": 1199,
      "See": 1200,
      "##ost": 1201,
      "whole": 1202,
      "those": 1203,
      "fre": 1204,
      "ad": 1205,
      "]\"": 1206,
      "##up": 1207,
      "lie": 1208,
      "slow": 1209,
      "##ntil": 1210,
      "many": 1211,
      "ph": 1212,
      "##ama": 1213,
      "beautiful": 1214,
      "Are": 1215,
      "cont": 1216,
      "late": 1217,
      "##ouse": 1218,
      "sec": 1219,
      "##ron": 1220,
      "heard": 1221,
      "line": 1222,
      "##ions": 1223,
      "Here": 1224,
      "kid": 1225,
      "##ery": 1226,
      "dreams": 1227,
      "Christ": 1228,
      "des": 1229,
      "##ort": 1230,
      "Keep": 1231,
      "getting": 1232,
      "fuckin": 1233,
      "##ane": 1234,
      "star": 1235,
      "hate": 1236,
      "##ork": 1237,
      "50": 1238,
      "seen": 1239,
      "town": 1240,
      "alive": 1241,
      "understand": 1242,
      "black": 1243,
      "lot": 1244,
      "pop": 1245,
      "##az": 1246,
      "##ful": 1247,
      "took": 1248,
      "lonely": 1249,
      "today": 1250,
      "sin": 1251,
      "##mor": 1252,
      "##ign": 1253,
      "Ain": 1254,
      "##ross": 1255,
      "woman": 1256,
      "strong": 1257,
      "danc": 1258,
      "white": 1259,
      "reason": 1260,
      "til": 1261,
      "living": 1262,
      "##unk": 1263,
      "##cked": 1264,
      "From": 1265,
      "Maybe": 1266,
      "save": 1267,
      "eh": 1268,
      "easy": 1269,
      "Put": 1270,
      "##ci": 1271,
      "child": 1272,
      "wall": 1273,
      "##ple": 1274,
      "##itch": 1275,
      "Re": 1276,
      "guess": 1277,
      "cri": 1278,
      "forget": 1279,
      "##ase": 1280,
      "##ia": 1281,
      "everybody": 1282,
      "##ank": 1283,
      "anything": 1284,
      "may": 1285,
      "morn": 1286,
      "after": 1287,
      "deep": 1288,
      "##fuck": 1289,
      "Sp": 1290,
      "!)[": 1291,
      "set": 1292,
      "air": 1293,
      "tre": 1294,
      "##bye": 1295,
      "win": 1296,
      "sure": 1297,
      "dead": 1298,
      "somebody": 1299,
      "happy": 1300,
      "Sl": 1301,
      "##ated": 1302,
      "ground": 1303,
      "##ress": 1304,
      "chance": 1305,
      "girls": 1306,
      "drop": 1307,
      "##ches": 1308,
      "Im": 1309,
      "bed": 1310,
      "##rol": 1311,
      "stra": 1312,
      "##ment": 1313,
      "sor": 1314,
      "Br": 1315,
      "Everybody": 1316,
      "till": 1317,
      "##amond": 1318,
      "makes": 1319,
      "prom": 1320,
      "##red": 1321,
      "room": 1322,
      "flow": 1323,
      "##pt": 1324,
      "##aa": 1325,
      "New": 1326,
      "##light": 1327,
      "bo": 1328,
      "sur": 1329,
      "listen": 1330,
      "Christmas": 1331,
      "Nigg": 1332,
      "low": 1333,
      "road": 1334,
      "wild": 1335,
      "##io": 1336,
      "Me": 1337,
      "Of": 1338,
      "ac": 1339,
      "##aw": 1340,
      "truth": 1341,
      "##ret": 1342,
      "pull": 1343,
      "ok": 1344,
      "diff": 1345,
      "##ny": 1346,
      "##now": 1347,
      "feels": 1348,
      "##der": 1349,
      "blood": 1350,
      "min": 1351,
      "Yes": 1352,
      "cut": 1353,
      "lover": 1354,
      "gave": 1355,
      "##umb": 1356,
      "Try": 1357,
      "dir": 1358,
      "happen": 1359,
      "wanted": 1360,
      "Boy": 1361,
      "floor": 1362,
      "each": 1363,
      "mad": 1364,
      "damn": 1365,
      "fast": 1366,
      "fine": 1367,
      "Feel": 1368,
      "##lt": 1369,
      "saw": 1370,
      "##ipp": 1371,
      "##og": 1372,
      "scream": 1373,
      "Even": 1374,
      "ap": 1375,
      "sea": 1376,
      "stars": 1377,
      "control": 1378,
      "##tle": 1379,
      "heaven": 1380,
      "lau": 1381,
      "once": 1382,
      "Man": 1383,
      "follow": 1384,
      "house": 1385,
      "##ary": 1386,
      "bright": 1387,
      "##ied": 1388,
      "goin": 1389,
      "perfect": 1390,
      "fin": 1391,
      "##ence": 1392,
      "##ummer": 1393,
      "fool": 1394,
      "##ired": 1395,
      "pray": 1396,
      "Fuck": 1397,
      "Un": 1398,
      "water": 1399,
      "##lo": 1400,
      "mag": 1401,
      "club": 1402,
      "differ": 1403,
      "##hind": 1404,
      "##outh": 1405,
      "diamond": 1406,
      "arms": 1407,
      "Will": 1408,
      "lay": 1409,
      "though": 1410,
      "thinking": 1411,
      "##orus": 1412,
      "##oment": 1413,
      "At": 1414,
      "##ared": 1415,
      "##gel": 1416,
      "full": 1417,
      "##gg": 1418,
      "shine": 1419,
      "##..": 1420,
      "broken": 1421,
      "catch": 1422,
      "Sometimes": 1423,
      "##int": 1424,
      "##mm": 1425,
      "Hold": 1426,
      "grow": 1427,
      "morning": 1428,
      "rap": 1429,
      "shake": 1430,
      "gi": 1431,
      "##ons": 1432,
      "red": 1433,
      "hair": 1434,
      "yes": 1435,
      "##ves": 1436,
      "running": 1437,
      "Sw": 1438,
      "moment": 1439,
      "##ket": 1440,
      "loving": 1441,
      "##ail": 1442,
      "##come": 1443,
      "loved": 1444,
      "dad": 1445,
      "shoot": 1446,
      "maybe": 1447,
      "rec": 1448,
      "drink": 1449,
      "years": 1450,
      "ear": 1451,
      "wit": 1452,
      "wake": 1453,
      "went": 1454,
      "tears": 1455,
      "couldn": 1456,
      "throw": 1457,
      "##akin": 1458,
      "breat": 1459,
      "meet": 1460,
      "gold": 1461,
      "##illion": 1462,
      "dra": 1463,
      "feet": 1464,
      "##ying": 1465,
      "eat": 1466,
      "goodbye": 1467,
      "Please": 1468,
      "Cl": 1469,
      "Ah": 1470,
      "hide": 1471,
      "gets": 1472,
      "fron": 1473,
      "rest": 1474,
      "until": 1475,
      "sit": 1476,
      "##ute": 1477,
      "Because": 1478,
      "##led": 1479,
      "falling": 1480,
      "Did": 1481,
      "pea": 1482,
      "chang": 1483,
      "##elt": 1484,
      "born": 1485,
      "##hes": 1486,
      "##hed": 1487,
      "##oooo": 1488,
      "mess": 1489,
      "both": 1490,
      "aw": 1491,
      "behind": 1492,
      "moon": 1493,
      "promise": 1494,
      "res": 1495,
      "##ey": 1496,
      "##ric": 1497,
      "cool": 1498,
      "##ich": 1499,
      "##ction": 1500,
      "?)[": 1501,
      "Uh": 1502,
      "##more": 1503,
      "##ins": 1504,
      "ball": 1505,
      "dar": 1506,
      "doing": 1507,
      "lead": 1508,
      "speak": 1509,
      "##oud": 1510,
      "sorry": 1511,
      "sad": 1512,
      "vo": 1513,
      "word": 1514,
      "met": 1515,
      "being": 1516,
      "along": 1517,
      "app": 1518,
      "##ze": 1519,
      "bus": 1520,
      "mir": 1521,
      "pass": 1522,
      "##icture": 1523,
      "laugh": 1524,
      "Turn": 1525,
      "##ohn": 1526,
      "bir": 1527,
      "##nce": 1528,
      "##ines": 1529,
      "count": 1530,
      "step": 1531,
      "La": 1532,
      "tried": 1533,
      "##ower": 1534,
      "mist": 1535,
      "Would": 1536,
      "##orm": 1537,
      "phone": 1538,
      "making": 1539,
      "eye": 1540,
      "##ung": 1541,
      "breath": 1542,
      "##ious": 1543,
      "takes": 1544,
      "##air": 1545,
      "##nin": 1546,
      "##\"[": 1547,
      "Nothing": 1548,
      "angel": 1549,
      "pie": 1550,
      "mouth": 1551,
      "##ier": 1552,
      "jump": 1553,
      "mid": 1554,
      "use": 1555,
      "fucking": 1556,
      "Out": 1557,
      "These": 1558,
      "##ize": 1559,
      "different": 1560,
      "tight": 1561,
      "##raid": 1562,
      "wants": 1563,
      "honey": 1564,
      "boys": 1565,
      "city": 1566,
      "less": 1567,
      "##iness": 1568,
      "soon": 1569,
      "Have": 1570,
      "##ph": 1571,
      "lips": 1572,
      "wouldn": 1573,
      "drive": 1574,
      "lies": 1575,
      "huh": 1576,
      ":[": 1577,
      "##man": 1578,
      "##ily": 1579,
      "sick": 1580,
      "summer": 1581,
      "front": 1582,
      "##aid": 1583,
      "sho": 1584,
      "##ready": 1585,
      "trust": 1586,
      "Only": 1587,
      "ring": 1588,
      "Everything": 1589,
      "motherfuck": 1590,
      "bull": 1591,
      "because": 1592,
      "John": 1593,
      "felt": 1594,
      "pri": 1595,
      "pretty": 1596,
      "##thin": 1597,
      "par": 1598,
      "million": 1599,
      "rel": 1600,
      "skin": 1601,
      "forg": 1602,
      "pick": 1603,
      "tea": 1604,
      "##ween": 1605,
      "##ating": 1606,
      "luck": 1607,
      "tired": 1608,
      "##morrow": 1609,
      "mama": 1610,
      "Any": 1611,
      "tomorrow": 1612,
      "half": 1613,
      "seems": 1614,
      "Cuz": 1615,
      "hang": 1616,
      "##sy": 1617,
      "comp": 1618,
      "sex": 1619,
      "##ones": 1620,
      "wast": 1621,
      "##ces": 1622,
      "##ob": 1623,
      "##hin": 1624,
      "##onna": 1625,
      "trou": 1626,
      "already": 1627,
      "Wa": 1628,
      "##co": 1629,
      "pay": 1630,
      "##und": 1631,
      "##anger": 1632,
      "##uff": 1633,
      "##cks": 1634,
      "##ape": 1635,
      "Chorus": 1636,
      "guy": 1637,
      "tast": 1638,
      "doesn": 1639,
      "past": 1640,
      "anymore": 1641,
      "nice": 1642,
      "very": 1643,
      "wasn": 1644,
      "straight": 1645,
      "##oc": 1646,
      "Run": 1647,
      "##dle": 1648,
      "los": 1649,
      "rem": 1650,
      "##ster": 1651,
      "pap": 1652,
      "fear": 1653,
      "##pin": 1654,
      "standing": 1655,
      "fill": 1656,
      "sign": 1657,
      "apart": 1658,
      "Back": 1659,
      "Before": 1660,
      "dancing": 1661,
      "Good": 1662,
      "##ote": 1663,
      "worry": 1664,
      "aint": 1665,
      "Gonna": 1666,
      "Yo": 1667,
      "yours": 1668,
      "##ife": 1669,
      "Won": 1670,
      "##ssed": 1671,
      "##ooh": 1672,
      "Ha": 1673,
      "##rew": 1674,
      "--": 1675,
      "picture": 1676,
      "feelin": 1677,
      "##my": 1678,
      "##vil": 1679,
      "##ror": 1680,
      "dou": 1681,
      "##thm": 1682,
      "blind": 1683,
      "Tw": 1684,
      "##not": 1685,
      "##pped": 1686,
      "dont": 1687,
      "started": 1688,
      "afraid": 1689,
      "since": 1690,
      "okay": 1691,
      "##ees": 1692,
      "..[": 1693,
      "##ched": 1694,
      "mar": 1695,
      "##yle": 1696,
      "conf": 1697,
      "##pect": 1698,
      "Wait": 1699,
      "ay": 1700,
      "##vor": 1701,
      "meant": 1702,
      "Tonight": 1703,
      "hum": 1704,
      "York": 1705,
      "fell": 1706,
      "wear": 1707,
      "clear": 1708,
      "second": 1709,
      "minute": 1710,
      "taking": 1711,
      "worth": 1712,
      "Right": 1713,
      "scared": 1714,
      "proble": 1715,
      "window": 1716,
      "pretend": 1717,
      "rhythm": 1718,
      "three": 1719,
      "says": 1720,
      "kick": 1721,
      "talking": 1722,
      "giving": 1723,
      "cur": 1724,
      "such": 1725,
      "year": 1726,
      "loves": 1727,
      "peace": 1728,
      "land": 1729,
      "clos": 1730,
      "expl": 1731,
      "breathe": 1732,
      "##umber": 1733,
      "tryin": 1734,
      "##ips": 1735,
      "Bet": 1736,
      "rid": 1737,
      "Time": 1738,
      "between": 1739,
      "fu": 1740,
      "nothin": 1741,
      "rhyme": 1742,
      "hood": 1743,
      "Show": 1744,
      "##sw": 1745,
      "Think": 1746,
      "##--------------------------------": 1747,
      "Hell": 1748,
      "fam": 1749,
      "yet": 1750,
      "##ition": 1751,
      "##uest": 1752,
      "##its": 1753,
      "gettin": 1754,
      "bar": 1755,
      "##ible": 1756,
      "plan": 1757,
      "Watch": 1758,
      "De": 1759,
      "reach": 1760,
      "att": 1761,
      "Call": 1762,
      "above": 1763,
      "king": 1764,
      "sch": 1765,
      "##osed": 1766,
      "river": 1767,
      "write": 1768,
      "trouble": 1769,
      "Was": 1770,
      "son": 1771,
      "knock": 1772,
      "While": 1773,
      "check": 1774,
      "tryna": 1775,
      "Dr": 1776,
      "taste": 1777,
      "##vy": 1778,
      "god": 1779,
      "supp": 1780,
      "##ib": 1781,
      "stick": 1782,
      "ins": 1783,
      "Life": 1784,
      "Shady": 1785,
      "wee": 1786,
      "somethin": 1787,
      "lookin": 1788,
      "##ha": 1789,
      "compl": 1790,
      "##iver": 1791,
      "##gs": 1792,
      "##reak": 1793,
      "nights": 1794,
      "mom": 1795,
      "col": 1796,
      "Hear": 1797,
      "te": 1798,
      "tear": 1799,
      "ed": 1800,
      "##sc": 1801,
      "everyone": 1802,
      "power": 1803,
      "##ian": 1804,
      "seem": 1805,
      "kids": 1806,
      "hig": 1807,
      "story": 1808,
      "##als": 1809,
      "hat": 1810,
      "##ets": 1811,
      "saying": 1812,
      "Lea": 1813,
      "smoke": 1814,
      "sen": 1815,
      "cuz": 1816,
      "rather": 1817,
      "##erve": 1818,
      "sometimes": 1819,
      "brother": 1820,
      "By": 1821,
      "Still": 1822,
      "##tain": 1823,
      "swear": 1824,
      "##ably": 1825,
      "##erse": 1826,
      "dick": 1827,
      "##ren": 1828,
      "##amp": 1829,
      "spend": 1830,
      "streets": 1831,
      "Know": 1832,
      "sn": 1833,
      "thr": 1834,
      "##iles": 1835,
      "##ope": 1836,
      "read": 1837,
      "holding": 1838,
      "Gotta": 1839,
      "daddy": 1840,
      "Music": 1841,
      "##ills": 1842,
      "##itting": 1843,
      "Wo": 1844,
      "loud": 1845,
      "Could": 1846,
      "##ining": 1847,
      "doo": 1848,
      "mot": 1849,
      "hearts": 1850,
      "magic": 1851,
      "Lo": 1852,
      "ru": 1853,
      "Af": 1854,
      "number": 1855,
      "suck": 1856,
      "buy": 1857,
      "sim": 1858,
      "ta": 1859,
      "##ner": 1860,
      "reg": 1861,
      "known": 1862,
      "blame": 1863,
      "Nigga": 1864,
      "##issed": 1865,
      "##ors": 1866,
      "##arm": 1867,
      "##oof": 1868,
      "answ": 1869,
      "niggaz": 1870,
      "Till": 1871,
      "##adio": 1872,
      "green": 1873,
      "crying": 1874,
      "Bitch": 1875,
      "Sing": 1876,
      "Too": 1877,
      "##==": 1878,
      "shad": 1879,
      "brain": 1880,
      "four": 1881,
      "ones": 1882,
      "knees": 1883,
      "Up": 1884,
      "ra": 1885,
      "##ester": 1886,
      "cou": 1887,
      "##ats": 1888,
      "##key": 1889,
      "stuck": 1890,
      "sold": 1891,
      "school": 1892,
      "gang": 1893,
      "##mit": 1894,
      "outside": 1895,
      "dec": 1896,
      "##urder": 1897,
      "##ards": 1898,
      "Nobody": 1899,
      "walking": 1900,
      "Rock": 1901,
      "fing": 1902,
      "super": 1903,
      "##ues": 1904,
      "##omb": 1905,
      "belong": 1906,
      "Sc": 1907,
      "send": 1908,
      "bang": 1909,
      "deal": 1910,
      "spin": 1911,
      "lives": 1912,
      "Ho": 1913,
      "##under": 1914,
      "begin": 1915,
      "##bably": 1916,
      "voice": 1917,
      "rise": 1918,
      "##most": 1919,
      "Stop": 1920,
      "calling": 1921,
      "called": 1922,
      "burning": 1923,
      "across": 1924,
      "Am": 1925,
      "Tr": 1926,
      "##ped": 1927,
      "cannot": 1928,
      "boom": 1929,
      "##ony": 1930,
      "dirty": 1931,
      "##land": 1932,
      "##cy": 1933,
      "##esterday": 1934,
      "key": 1935,
      "style": 1936,
      "##ude": 1937,
      "Stand": 1938,
      "turned": 1939,
      "hour": 1940,
      "men": 1941,
      "higher": 1942,
      "##anna": 1943,
      "anybody": 1944,
      "darling": 1945,
      "##adies": 1946,
      "##ousand": 1947,
      "Com": 1948,
      "##lin": 1949,
      "mistake": 1950,
      "##imme": 1951,
      "paper": 1952,
      "needs": 1953,
      "##ole": 1954,
      "build": 1955,
      "##ana": 1956,
      "##alked": 1957,
      "nowhere": 1958,
      "emp": 1959,
      "sy": 1960,
      "##uture": 1961,
      "chain": 1962,
      "space": 1963,
      "Lord": 1964,
      "##aster": 1965,
      "press": 1966,
      "Down": 1967,
      "Sm": 1968,
      "sat": 1969,
      "death": 1970,
      "push": 1971,
      "##friend": 1972,
      "chick": 1973,
      "faith": 1974,
      "flame": 1975,
      "hurts": 1976,
      "pus": 1977,
      "block": 1978,
      "caught": 1979,
      "##ching": 1980,
      "freak": 1981,
      "thousand": 1982,
      "upon": 1983,
      "spot": 1984,
      "middle": 1985,
      "Gu": 1986,
      "quest": 1987,
      "##iv": 1988,
      "ten": 1989,
      "##ray": 1990,
      "Looking": 1991,
      "dirt": 1992,
      "ill": 1993,
      "##oose": 1994,
      "playing": 1995,
      "##aces": 1996,
      "Another": 1997,
      "mirror": 1998,
      "Ab": 1999,
      "##oked": 2000,
      "##ows": 2001,
      "isn": 2002,
      "alb": 2003,
      "shoes": 2004,
      "bleed": 2005,
      "warm": 2006,
      "Our": 2007,
      "doll": 2008,
      "singing": 2009,
      "Stay": 2010,
      "Che": 2011,
      "whatever": 2012,
      "bat": 2013,
      "future": 2014,
      "##ica": 2015,
      "Le": 2016,
      "Mr": 2017,
      "almost": 2018,
      "comin": 2019,
      "cle": 2020,
      "int": 2021,
      "##lect": 2022,
      "single": 2023,
      "##night": 2024,
      "sayin": 2025,
      "fact": 2026,
      "##bb": 2027,
      "##head": 2028,
      "Amer": 2029,
      "##eas": 2030,
      "pen": 2031,
      "crack": 2032,
      "dist": 2033,
      "hom": 2034,
      "radio": 2035,
      "##no": 2036,
      "##uu": 2037,
      "breaking": 2038,
      "cand": 2039,
      "dress": 2040,
      "ret": 2041,
      "bitches": 2042,
      "album": 2043,
      "quick": 2044,
      "bott": 2045,
      "imp": 2046,
      "rich": 2047,
      "##anta": 2048,
      "changed": 2049,
      "cross": 2050,
      "##unt": 2051,
      "Black": 2052,
      "Hello": 2053,
      "sell": 2054,
      "become": 2055,
      "corn": 2056,
      "favor": 2057,
      "probably": 2058,
      "mic": 2059,
      "##ical": 2060,
      "##vers": 2061,
      "near": 2062,
      "##ppin": 2063,
      "clot": 2064,
      "track": 2065,
      "Under": 2066,
      "ce": 2067,
      "share": 2068,
      "Imma": 2069,
      "Cent": 2070,
      "outta": 2071,
      "thank": 2072,
      "mer": 2073,
      "whis": 2074,
      "Dre": 2075,
      "murder": 2076,
      "Remember": 2077,
      "Elt": 2078,
      "##ords": 2079,
      "band": 2080,
      "ways": 2081,
      "Elton": 2082,
      "doin": 2083,
      "yea": 2084,
      "shout": 2085,
      "Ya": 2086,
      "##hhhh": 2087,
      "cop": 2088,
      "den": 2089,
      "##cho": 2090,
      "##imb": 2091,
      "whoa": 2092,
      "doub": 2093,
      "human": 2094,
      "##mon": 2095,
      "Through": 2096,
      "most": 2097,
      "##neath": 2098,
      "ty": 2099,
      "!!": 2100,
      "Wanna": 2101,
      "keeps": 2102,
      "queen": 2103,
      "##ised": 2104,
      "##ned": 2105,
      "children": 2106,
      "People": 2107,
      "hoo": 2108,
      "point": 2109,
      "Said": 2110,
      "lady": 2111,
      "clou": 2112,
      "##igger": 2113,
      "##upid": 2114,
      "##reat": 2115,
      "walls": 2116,
      "dre": 2117,
      "hoes": 2118,
      "squ": 2119,
      "shame": 2120,
      "Play": 2121,
      "wide": 2122,
      "##mell": 2123,
      "##cent": 2124,
      "##onest": 2125,
      "against": 2126,
      "talkin": 2127,
      "Without": 2128,
      "##cial": 2129,
      "##elf": 2130,
      "##ift": 2131,
      "small": 2132,
      "piece": 2133,
      "##ried": 2134,
      "Se": 2135,
      "Want": 2136,
      "Someone": 2137,
      "Qu": 2138,
      "diamonds": 2139,
      "problem": 2140,
      "answer": 2141,
      "##irc": 2142,
      "enem": 2143,
      "woah": 2144,
      "cake": 2145,
      "cap": 2146,
      "nah": 2147,
      "everyday": 2148,
      "train": 2149,
      "edge": 2150,
      "##ina": 2151,
      "Something": 2152,
      "Always": 2153,
      "Bring": 2154,
      "business": 2155,
      "Fl": 2156,
      "Until": 2157,
      "##min": 2158,
      "##use": 2159,
      "##ither": 2160,
      "runnin": 2161,
      "great": 2162,
      "losing": 2163,
      "whe": 2164,
      "storm": 2165,
      "Unit": 2166,
      "##te": 2167,
      "stri": 2168,
      "anyone": 2169,
      "hello": 2170,
      "family": 2171,
      "Kiss": 2172,
      "vis": 2173,
      "funny": 2174,
      "bye": 2175,
      "leaving": 2176,
      "finally": 2177,
      "miles": 2178,
      "##ik": 2179,
      "lovin": 2180,
      "looks": 2181,
      "empty": 2182,
      "Int": 2183,
      "##ii": 2184,
      "inst": 2185,
      "sand": 2186,
      "harder": 2187,
      "five": 2188,
      "shut": 2189,
      "least": 2190,
      "sense": 2191,
      "After": 2192,
      "bur": 2193,
      "##ike": 2194,
      "treat": 2195,
      "Big": 2196,
      "Hea": 2197,
      "Talk": 2198,
      "hor": 2199,
      "spe": 2200,
      "telling": 2201,
      "ice": 2202,
      "heat": 2203,
      "closer": 2204,
      "clean": 2205,
      "boo": 2206,
      "yesterday": 2207,
      "##act": 2208,
      "carry": 2209,
      "walked": 2210,
      "##vel": 2211,
      "dog": 2212,
      "##eat": 2213,
      "##.[": 2214,
      "lucky": 2215,
      "Ay": 2216,
      "##wood": 2217,
      "##fl": 2218,
      "clothes": 2219,
      "Work": 2220,
      "hung": 2221,
      "six": 2222,
      "##br": 2223,
      "boot": 2224,
      "smell": 2225,
      "##ale": 2226,
      "rep": 2227,
      "forgive": 2228,
      "livin": 2229,
      "##une": 2230,
      "bump": 2231,
      "sight": 2232,
      "##ugg": 2233,
      "favorite": 2234,
      "pat": 2235,
      "hole": 2236,
      "pers": 2237,
      "watching": 2238,
      "Better": 2239,
      "circ": 2240,
      "##ual": 2241,
      "Ma": 2242,
      "crow": 2243,
      "danger": 2244,
      "dest": 2245,
      "Leave": 2246,
      "fake": 2247,
      "##dd": 2248,
      "##cket": 2249,
      "simple": 2250,
      "),": 2251,
      "heal": 2252,
      "snow": 2253,
      "##ison": 2254,
      "##irt": 2255,
      "##ountain": 2256,
      "del": 2257,
      "glass": 2258,
      "Two": 2259,
      "Been": 2260,
      "Ne": 2261,
      "self": 2262,
      "##illy": 2263,
      "ohh": 2264,
      "Listen": 2265,
      "earth": 2266,
      "Roll": 2267,
      "add": 2268,
      "##gn": 2269,
      "dreaming": 2270,
      "learned": 2271,
      "supposed": 2272,
      "Mar": 2273,
      "father": 2274,
      "##iet": 2275,
      "##aded": 2276,
      "##icked": 2277,
      "waste": 2278,
      "clouds": 2279,
      "Her": 2280,
      "##orty": 2281,
      "means": 2282,
      "Walk": 2283,
      "fr": 2284,
      "hust": 2285,
      "everywhere": 2286,
      "##ittin": 2287,
      "##ister": 2288,
      "songs": 2289,
      "mma": 2290,
      "##lcome": 2291,
      "##ping": 2292,
      "##ations": 2293,
      "kinda": 2294,
      "mm": 2295,
      "rapp": 2296,
      "wine": 2297,
      "##eady": 2298,
      "coll": 2299,
      "wings": 2300,
      "##erg": 2301,
      "steal": 2302,
      "##iday": 2303,
      "brand": 2304,
      "##sta": 2305,
      "##igure": 2306,
      "spit": 2307,
      "cock": 2308,
      "dear": 2309,
      "sce": 2310,
      "oce": 2311,
      "tree": 2312,
      "neck": 2313,
      "somewhere": 2314,
      "awake": 2315,
      "Na": 2316,
      "memor": 2317,
      "anim": 2318,
      "##olog": 2319,
      "fix": 2320,
      "Shake": 2321,
      "news": 2322,
      "disapp": 2323,
      "##shine": 2324,
      "darkness": 2325,
      "honest": 2326,
      "wis": 2327,
      "looked": 2328,
      "surv": 2329,
      "bomb": 2330,
      "yell": 2331,
      "##cc": 2332,
      "##ger": 2333,
      "##iling": 2334,
      "bigger": 2335,
      "esc": 2336,
      "##fin": 2337,
      "fair": 2338,
      "##read": 2339,
      "stupid": 2340,
      "##---": 2341,
      "##rap": 2342,
      "drug": 2343,
      "doubt": 2344,
      "##uj": 2345,
      "##iding": 2346,
      "birth": 2347,
      "explain": 2348,
      "10": 2349,
      "##ky": 2350,
      "##edom": 2351,
      "moving": 2352,
      "bust": 2353,
      "##ield": 2354,
      "thinkin": 2355,
      "drunk": 2356,
      "thoughts": 2357,
      "games": 2358,
      "Cal": 2359,
      "sear": 2360,
      "dope": 2361,
      "Though": 2362,
      "cho": 2363,
      "##itten": 2364,
      "twice": 2365,
      "##undred": 2366,
      "Little": 2367,
      "Til": 2368,
      "case": 2369,
      "##vail": 2370,
      "memories": 2371,
      "Money": 2372,
      "pol": 2373,
      "##ced": 2374,
      "##ks": 2375,
      "##ots": 2376,
      "loose": 2377,
      "##allow": 2378,
      "twist": 2379,
      "missing": 2380,
      "##ujah": 2381,
      "##ect": 2382,
      "##esus": 2383,
      "ref": 2384,
      "Somebody": 2385,
      "dust": 2386,
      "foot": 2387,
      "sile": 2388,
      "##vis": 2389,
      "##atur": 2390,
      "feelings": 2391,
      "box": 2392,
      "Move": 2393,
      "sent": 2394,
      "##bo": 2395,
      "lil": 2396,
      "hall": 2397,
      "##iew": 2398,
      "quit": 2399,
      "imag": 2400,
      "id": 2401,
      "ind": 2402,
      "tem": 2403,
      "##ming": 2404,
      "thunder": 2405,
      "##omen": 2406,
      "Dad": 2407,
      "Hit": 2408,
      "##host": 2409,
      "##med": 2410,
      "Throw": 2411,
      "places": 2412,
      "sug": 2413,
      "exc": 2414,
      "flying": 2415,
      "ahead": 2416,
      "fat": 2417,
      "Niggas": 2418,
      "mis": 2419,
      "woo": 2420,
      "##gin": 2421,
      "##how": 2422,
      "turning": 2423,
      "##ually": 2424,
      "choose": 2425,
      "safe": 2426,
      "Con": 2427,
      "Ex": 2428,
      "fit": 2429,
      "wife": 2430,
      "##unch": 2431,
      "##ilt": 2432,
      "wrote": 2433,
      "Jesus": 2434,
      "pas": 2435,
      "##rought": 2436,
      "mov": 2437,
      "fucked": 2438,
      "worst": 2439,
      "Should": 2440,
      "crowd": 2441,
      "##vailable": 2442,
      "figure": 2443,
      "##ince": 2444,
      "played": 2445,
      "##ealous": 2446,
      "cover": 2447,
      "ob": 2448,
      "Whate": 2449,
      "Does": 2450,
      "hundred": 2451,
      "pour": 2452,
      "##oe": 2453,
      "med": 2454,
      "needed": 2455,
      "dem": 2456,
      "corner": 2457,
      "Whatever": 2458,
      "rush": 2459,
      "##ial": 2460,
      "hero": 2461,
      "bee": 2462,
      "bri": 2463,
      "bones": 2464,
      "ser": 2465,
      "##ten": 2466,
      "bottle": 2467,
      "finger": 2468,
      "table": 2469,
      "lift": 2470,
      "state": 2471,
      "shining": 2472,
      "pride": 2473,
      "secret": 2474,
      "ocean": 2475,
      "Lay": 2476,
      "##elujah": 2477,
      "##ention": 2478,
      "fighting": 2479,
      "bottom": 2480,
      "Heaven": 2481,
      "Verse": 2482,
      "ck": 2483,
      "ly": 2484,
      "lines": 2485,
      "##pri": 2486,
      "someday": 2487,
      "special": 2488,
      "Slim": 2489,
      "price": 2490,
      "book": 2491,
      "pill": 2492,
      "##iny": 2493,
      "##vent": 2494,
      "halo": 2495,
      "ends": 2496,
      "champ": 2497,
      "gri": 2498,
      "mountain": 2499,
      "pack": 2500,
      "##ates": 2501,
      "mem": 2502,
      "clock": 2503,
      "Damn": 2504,
      "Yea": 2505,
      "mel": 2506,
      "devil": 2507,
      "glad": 2508,
      "paint": 2509,
      "heavy": 2510,
      "record": 2511,
      "ris": 2512,
      "stone": 2513,
      "bag": 2514,
      "shots": 2515,
      "Boom": 2516,
      "Last": 2517,
      "playin": 2518,
      "died": 2519,
      "dum": 2520,
      "makin": 2521,
      "##used": 2522,
      "wave": 2523,
      "##els": 2524,
      "Gra": 2525,
      "job": 2526,
      "pos": 2527,
      "tong": 2528,
      "##nie": 2529,
      "##any": 2530,
      "short": 2531,
      "##adise": 2532,
      "climb": 2533,
      "turns": 2534,
      "forgot": 2535,
      "Available": 2536,
      "Hot": 2537,
      "rom": 2538,
      "##rets": 2539,
      "plans": 2540,
      "quite": 2541,
      "chest": 2542,
      "cried": 2543,
      "gas": 2544,
      "held": 2545,
      "disco": 2546,
      "##ept": 2547,
      "Bea": 2548,
      "Cos": 2549,
      "cal": 2550,
      "longer": 2551,
      "lovers": 2552,
      "du": 2553,
      "fade": 2554,
      "##line": 2555,
      "Its": 2556,
      "##ices": 2557,
      "##llywood": 2558,
      "fame": 2559,
      "ladies": 2560,
      "ter": 2561,
      "Living": 2562,
      "guns": 2563,
      "Trying": 2564,
      "Find": 2565,
      "hol": 2566,
      "weak": 2567,
      "ext": 2568,
      "couple": 2569,
      "person": 2570,
      "scene": 2571,
      "dying": 2572,
      "nine": 2573,
      "Waiting": 2574,
      "Fr": 2575,
      "dumb": 2576,
      "ghost": 2577,
      "numb": 2578,
      "tor": 2579,
      "##men": 2580,
      "##isf": 2581,
      "##ants": 2582,
      "deserve": 2583,
      "Sweet": 2584,
      "motherfucker": 2585,
      "pussy": 2586,
      "##ls": 2587,
      "##?[": 2588,
      "Shine": 2589,
      "memory": 2590,
      "Over": 2591,
      "jo": 2592,
      "Once": 2593,
      "Pr": 2594,
      "dig": 2595,
      "later": 2596,
      "park": 2597,
      "##ete": 2598,
      "having": 2599,
      "##ird": 2600,
      "strange": 2601,
      "##peat": 2602,
      "Open": 2603,
      "bou": 2604,
      "ling": 2605,
      "stuff": 2606,
      "Thank": 2607,
      "##ode": 2608,
      "##icke": 2609,
      "cha": 2610,
      "handle": 2611,
      "drown": 2612,
      "starting": 2613,
      "##aughter": 2614,
      "crime": 2615,
      "type": 2616,
      "tongue": 2617,
      "ign": 2618,
      "bell": 2619,
      "Shit": 2620,
      "insane": 2621,
      "Light": 2622,
      "More": 2623,
      "lying": 2624,
      "law": 2625,
      "remind": 2626,
      "Em": 2627,
      "Red": 2628,
      "dry": 2629,
      "scr": 2630,
      "hip": 2631,
      "##room": 2632,
      "##ution": 2633,
      "happened": 2634,
      "##iforn": 2635,
      "monkey": 2636,
      "paradise": 2637,
      "Into": 2638,
      "hy": 2639,
      "Than": 2640,
      "##atest": 2641,
      "beats": 2642,
      "Dream": 2643,
      "pur": 2644,
      "tee": 2645,
      "##cept": 2646,
      "killing": 2647,
      "grind": 2648,
      "Girls": 2649,
      "view": 2650,
      "##ience": 2651,
      "stare": 2652,
      "##aha": 2653,
      "sunshine": 2654,
      "pieces": 2655,
      "##lectric": 2656,
      "Lou": 2657,
      "tough": 2658,
      "##att": 2659,
      "##atic": 2660,
      "chase": 2661,
      "butt": 2662,
      "spir": 2663,
      "##ippin": 2664,
      "gangsta": 2665,
      "Ooo": 2666,
      "tall": 2667,
      "letter": 2668,
      "div": 2669,
      "screaming": 2670,
      "Had": 2671,
      "High": 2672,
      "##mb": 2673,
      "##atin": 2674,
      "##ault": 2675,
      "worse": 2676,
      "##pping": 2677,
      "movin": 2678,
      "question": 2679,
      "whisper": 2680,
      "oo": 2681,
      "ran": 2682,
      "test": 2683,
      "##ture": 2684,
      "##het": 2685,
      "ste": 2686,
      "##lew": 2687,
      "Ohh": 2688,
      "-[": 2689,
      "Mother": 2690,
      "jam": 2691,
      "none": 2692,
      "##ature": 2693,
      "##ides": 2694,
      "##roud": 2695,
      "##ican": 2696,
      "##ctor": 2697,
      "##sent": 2698,
      "bare": 2699,
      "mirac": 2700,
      "week": 2701,
      "Bad": 2702,
      "Need": 2703,
      "cat": 2704,
      "cour": 2705,
      "##ax": 2706,
      "which": 2707,
      "emot": 2708,
      "enemy": 2709,
      "cash": 2710,
      "sitting": 2711,
      "##cha": 2712,
      "asking": 2713,
      "teach": 2714,
      "survive": 2715,
      "dare": 2716,
      "##let": 2717,
      "##ashion": 2718,
      "##shit": 2719,
      "satisf": 2720,
      "Kn": 2721,
      "##lebr": 2722,
      "weight": 2723,
      "chill": 2724,
      "##------------": 2725,
      "raise": 2726,
      "El": 2727,
      "few": 2728,
      "##cer": 2729,
      "##__": 2730,
      "inter": 2731,
      "asked": 2732,
      "class": 2733,
      "Standing": 2734,
      "Ben": 2735,
      "Hall": 2736,
      "bought": 2737,
      "nut": 2738,
      "oooh": 2739,
      "##vol": 2740,
      "soft": 2741,
      "Help": 2742,
      "trees": 2743,
      "Woah": 2744,
      "Loving": 2745,
      "Daddy": 2746,
      "brought": 2747,
      "weed": 2748,
      "##ient": 2749,
      "##cher": 2750,
      "##ging": 2751,
      "##we": 2752,
      "atta": 2753,
      "haven": 2754,
      "Whoa": 2755,
      "greatest": 2756,
      "attention": 2757,
      "##ifornia": 2758,
      "---": 2759,
      "-----": 2760,
      "12": 2761,
      "Da": 2762,
      "Ey": 2763,
      "Wr": 2764,
      "women": 2765,
      "##oon": 2766,
      "knife": 2767,
      "bite": 2768,
      "drum": 2769,
      "art": 2770,
      "sounds": 2771,
      "desire": 2772,
      "Guess": 2773,
      "!!!": 2774,
      "Fall": 2775,
      "gen": 2776,
      "##itar": 2777,
      "likes": 2778,
      "spl": 2779,
      "grown": 2780,
      "grab": 2781,
      "return": 2782,
      "Long": 2783,
      "pound": 2784,
      "wat": 2785,
      "##ru": 2786,
      "shoulder": 2787,
      "woke": 2788,
      "slowly": 2789,
      "bullet": 2790,
      "regret": 2791,
      "homie": 2792,
      "May": 2793,
      "ment": 2794,
      "##sel": 2795,
      "thats": 2796,
      "sub": 2797,
      "stronger": 2798,
      "Hollywood": 2799,
      "Ph": 2800,
      "bum": 2801,
      "echo": 2802,
      "##ward": 2803,
      "blues": 2804,
      "trip": 2805,
      "##aaaa": 2806,
      "momma": 2807,
      "Gimme": 2808,
      "His": 2809,
      "Honey": 2810,
      "pump": 2811,
      "cant": 2812,
      "##usion": 2813,
      "ago": 2814,
      "hours": 2815,
      "mistakes": 2816,
      "Cra": 2817,
      "Mich": 2818,
      "Wish": 2819,
      "fo": 2820,
      "##itc": 2821,
      "clap": 2822,
      "driving": 2823,
      "season": 2824,
      "angels": 2825,
      "battle": 2826,
      "dah": 2827,
      "##rif": 2828,
      "##====": 2829,
      "About": 2830,
      "instead": 2831,
      "Car": 2832,
      "##eased": 2833,
      "brid": 2834,
      "sweat": 2835,
      "disg": 2836,
      "fresh": 2837,
      "jealous": 2838,
      "takin": 2839,
      "##|[": 2840,
      "shorty": 2841,
      "##amed": 2842,
      "freedom": 2843,
      "pressure": 2844,
      "America": 2845,
      "!\"[": 2846,
      "20": 2847,
      "pim": 2848,
      "##uise": 2849,
      "Star": 2850,
      "swim": 2851,
      "seat": 2852,
      "##ized": 2853,
      "surpri": 2854,
      "Didn": 2855,
      "Since": 2856,
      "cars": 2857,
      "bless": 2858,
      "slave": 2859,
      "amaz": 2860,
      "Santa": 2861,
      "stom": 2862,
      "##ics": 2863,
      "swing": 2864,
      "dawn": 2865,
      "older": 2866,
      "Break": 2867,
      "Sund": 2868,
      "cos": 2869,
      "butter": 2870,
      "cons": 2871,
      "##ipping": 2872,
      "Head": 2873,
      "sal": 2874,
      "thang": 2875,
      "##irty": 2876,
      "##umble": 2877,
      "Everyone": 2878,
      "seven": 2879,
      "##anks": 2880,
      "respect": 2881,
      "Su": 2882,
      "##oss": 2883,
      "##??": 2884,
      "inno": 2885,
      "##ident": 2886,
      "##enty": 2887,
      "##entle": 2888,
      "writ": 2889,
      "skies": 2890,
      "##ney": 2891,
      "beauty": 2892,
      "hanging": 2893,
      "sugar": 2894,
      "Making": 2895,
      "Part": 2896,
      "age": 2897,
      "fra": 2898,
      "feed": 2899,
      "proud": 2900,
      "##ring": 2901,
      "##fu": 2902,
      "##ator": 2903,
      "sol": 2904,
      "##ipe": 2905,
      "?\"[": 2906,
      "Ar": 2907,
      "Dar": 2908,
      "bone": 2909,
      "sil": 2910,
      "##bble": 2911,
      "##ert": 2912,
      "locked": 2913,
      "##lent": 2914,
      "Thought": 2915,
      "##ules": 2916,
      "working": 2917,
      "sleeping": 2918,
      "message": 2919,
      "bullshit": 2920,
      "escape": 2921,
      "Burn": 2922,
      "Hop": 2923,
      "Mama": 2924,
      "je": 2925,
      "##yy": 2926,
      "##go": 2927,
      "##fet": 2928,
      "##uss": 2929,
      "moves": 2930,
      "chee": 2931,
      "birthday": 2932,
      "Cry": 2933,
      "City": 2934,
      "##cle": 2935,
      "##ww": 2936,
      "glory": 2937,
      "crown": 2938,
      "deny": 2939,
      "Dri": 2940,
      "ooo": 2941,
      "rub": 2942,
      "##ined": 2943,
      "spent": 2944,
      "Blue": 2945,
      "sexy": 2946,
      "filled": 2947,
      "soldier": 2948,
      "Mer": 2949,
      "Sun": 2950,
      "##res": 2951,
      "##aked": 2952,
      "lets": 2953,
      "Feels": 2954,
      "Goodbye": 2955,
      "California": 2956,
      "Ok": 2957,
      "Pull": 2958,
      "Pret": 2959,
      "Woo": 2960,
      "fault": 2961,
      "mix": 2962,
      "paid": 2963,
      "##zz": 2964,
      "##icated": 2965,
      "somehow": 2966,
      "spark": 2967,
      "##uel": 2968,
      "anyway": 2969,
      "energ": 2970,
      "monster": 2971,
      "Check": 2972,
      "Sunday": 2973,
      "Way": 2974,
      "gimme": 2975,
      "wea": 2976,
      "##ael": 2977,
      "taken": 2978,
      "##venge": 2979,
      "flip": 2980,
      "guitar": 2981,
      "hoping": 2982,
      "sink": 2983,
      "wet": 2984,
      "##leep": 2985,
      "##ieve": 2986,
      "swallow": 2987,
      "movie": 2988,
      "Beaut": 2989,
      "Day": 2990,
      "Jack": 2991,
      "und": 2992,
      "wood": 2993,
      "##bel": 2994,
      "##for": 2995,
      "##ination": 2996,
      "laughing": 2997,
      "dangerous": 2998,
      "Oooh": 2999,
      "##uc": 3000,
      "##kin": 3001,
      "##break": 3002,
      "##ited": 3003,
      "repl": 3004,
      "prove": 3005,
      "lyric": 3006,
      "energy": 3007,
      "Eh": 3008,
      "Happ": 3009,
      "Mon": 3010,
      "Night": 3011,
      "##ored": 3012,
      "girlfriend": 3013,
      "Stra": 3014,
      "##ular": 3015,
      "##astic": 3016,
      "quiet": 3017,
      "winter": 3018,
      "distance": 3019,
      "celebr": 3020,
      "Fore": 3021,
      "King": 3022,
      "##pr": 3023,
      "loc": 3024,
      "dep": 3025,
      "craw": 3026,
      "starts": 3027,
      "bird": 3028,
      "company": 3029,
      "Bel": 3030,
      "Ear": 3031,
      "Save": 3032,
      "Te": 3033,
      "char": 3034,
      "White": 3035,
      "pleas": 3036,
      "asleep": 3037,
      "arm": 3038,
      "##ipped": 3039,
      "Michael": 3040,
      "DJ": 3041,
      "Rel": 3042,
      "Tri": 3043,
      "ele": 3044,
      "holl": 3045,
      "##den": 3046,
      "##rop": 3047,
      "##ged": 3048,
      "rockin": 3049,
      "flowers": 3050,
      "remain": 3051,
      "Danc": 3052,
      "Mary": 3053,
      "Pain": 3054,
      "joke": 3055,
      "mi": 3056,
      "yum": 3057,
      "##ories": 3058,
      "Alright": 3059,
      "apolog": 3060,
      "country": 3061,
      "problems": 3062,
      "joy": 3063,
      "bam": 3064,
      "##ancy": 3065,
      "Going": 3066,
      "shadow": 3067,
      "Bang": 3068,
      "Free": 3069,
      "Must": 3070,
      "bow": 3071,
      "mas": 3072,
      "sister": 3073,
      "Those": 3074,
      "keeping": 3075,
      "shouldn": 3076,
      "realize": 3077,
      "univer": 3078,
      "rolling": 3079,
      "acc": 3080,
      "disappear": 3081,
      "##selves": 3082,
      "Rea": 3083,
      "evil": 3084,
      "fad": 3085,
      "##reen": 3086,
      "lip": 3087,
      "lock": 3088,
      "Welcome": 3089,
      "...)[": 3090,
      "wont": 3091,
      "anywhere": 3092,
      "expect": 3093,
      "draw": 3094,
      "beef": 3095,
      "Dance": 3096,
      "Hard": 3097,
      "Set": 3098,
      "eight": 3099,
      "fant": 3100,
      "rough": 3101,
      "vi": 3102,
      "##**": 3103,
      "##isses": 3104,
      "whip": 3105,
      "smok": 3106,
      "drag": 3107,
      "pictures": 3108,
      "flames": 3109,
      "Fly": 3110,
      "Jump": 3111,
      "Live": 3112,
      "ca": 3113,
      "kept": 3114,
      "race": 3115,
      "christ": 3116,
      "chorus": 3117,
      "##table": 3118,
      "bread": 3119,
      "##agne": 3120,
      "aff": 3121,
      "Blood": 3122,
      "color": 3123,
      "Bu": 3124,
      "vide": 3125,
      "inc": 3126,
      "leaves": 3127,
      "Anything": 3128,
      "silence": 3129,
      "Kill": 3130,
      "Per": 3131,
      "sna": 3132,
      "##ground": 3133,
      "stole": 3134,
      "chas": 3135,
      "Step": 3136,
      "grave": 3137,
      "dancin": 3138,
      "happens": 3139,
      "breathing": 3140,
      "golden": 3141,
      "tele": 3142,
      "Wonder": 3143,
      "!)": 3144,
      "Send": 3145,
      "cre": 3146,
      "dire": 3147,
      "rules": 3148,
      "##fall": 3149,
      "##ract": 3150,
      "legs": 3151,
      "##awty": 3152,
      "haters": 3153,
      "beginning": 3154,
      "candy": 3155,
      "yellow": 3156,
      "aim": 3157,
      "ur": 3158,
      "##bit": 3159,
      "##boy": 3160,
      "within": 3161,
      "##odu": 3162,
      "clip": 3163,
      "given": 3164,
      "slip": 3165,
      "waitin": 3166,
      "convers": 3167,
      "pocket": 3168,
      "prayer": 3169,
      "motherfuckin": 3170,
      "double": 3171,
      "marry": 3172,
      "2x": 3173,
      "Deep": 3174,
      "taught": 3175,
      "glow": 3176,
      "begging": 3177,
      "shadows": 3178,
      "cook": 3179,
      "fever": 3180,
      "lick": 3181,
      "##ury": 3182,
      "##romise": 3183,
      "truck": 3184,
      "trick": 3185,
      "burned": 3186,
      "brings": 3187,
      "doors": 3188,
      "wonderful": 3189,
      "Hope": 3190,
      "Miss": 3191,
      "por": 3192,
      "##ject": 3193,
      "spell": 3194,
      "##istory": 3195,
      "prop": 3196,
      "spirit": 3197,
      "Lady": 3198,
      "bound": 3199,
      "ju": 3200,
      "##set": 3201,
      "##yond": 3202,
      "repeat": 3203,
      "speed": 3204,
      "##ifty": 3205,
      "Slow": 3206,
      "addict": 3207,
      "Hallelujah": 3208,
      "either": 3209,
      "field": 3210,
      "blah": 3211,
      "Took": 3212,
      "Wor": 3213,
      "ev": 3214,
      "kissed": 3215,
      "match": 3216,
      "roof": 3217,
      "weather": 3218,
      "flash": 3219,
      "##eless": 3220,
      "##acked": 3221,
      "##hhh": 3222,
      "built": 3223,
      "killer": 3224,
      "reasons": 3225,
      "romance": 3226,
      "jeans": 3227,
      "universe": 3228,
      "cent": 3229,
      "cast": 3230,
      "##ider": 3231,
      "swag": 3232,
      "##ondon": 3233,
      "month": 3234,
      "London": 3235,
      "Pick": 3236,
      "pin": 3237,
      "tied": 3238,
      "wherever": 3239,
      "stranger": 3240,
      "birds": 3241,
      "First": 3242,
      "##que": 3243,
      "##orrow": 3244,
      "Young": 3245,
      "Someday": 3246,
      "scar": 3247,
      "admit": 3248,
      "secrets": 3249,
      "##...": 3250,
      "choice": 3251,
      "passed": 3252,
      "Banks": 3253,
      "Par": 3254,
      "dough": 3255,
      "##star": 3256,
      "##ashing": 3257,
      "##icket": 3258,
      "Start": 3259,
      "switch": 3260,
      "falls": 3261,
      "mach": 3262,
      "Makes": 3263,
      "wondering": 3264,
      "fingers": 3265,
      "Co": 3266,
      "##itty": 3267,
      "listening": 3268,
      "rhymes": 3269,
      "Wake": 3270,
      "bod": 3271,
      "gift": 3272,
      "thug": 3273,
      "##ities": 3274,
      "shop": 3275,
      "seeing": 3276,
      "beating": 3277,
      "##ngth": 3278,
      "sorrow": 3279,
      "Coming": 3280,
      "cree": 3281,
      "##eg": 3282,
      "stage": 3283,
      "revenge": 3284,
      "cloud": 3285,
      "poor": 3286,
      "Catch": 3287,
      "Tod": 3288,
      "Touch": 3289,
      "cup": 3290,
      "harm": 3291,
      "wre": 3292,
      "fail": 3293,
      "Inst": 3294,
      "killed": 3295,
      "adv": 3296,
      "boss": 3297,
      "guys": 3298,
      "wheel": 3299,
      "Next": 3300,
      "miracle": 3301,
      "Cr": 3302,
      "Ladies": 3303,
      "page": 3304,
      "verse": 3305,
      "##ium": 3306,
      "Things": 3307,
      "hopeless": 3308,
      "busy": 3309,
      "thrill": 3310,
      "hustle": 3311,
      "video": 3312,
      "Follow": 3313,
      "Wild": 3314,
      "mood": 3315,
      "missed": 3316,
      "##ns": 3317,
      "##gie": 3318,
      "tow": 3319,
      "lied": 3320,
      "bree": 3321,
      "enter": 3322,
      "voices": 3323,
      "Forever": 3324,
      "christmas": 3325,
      "Fight": 3326,
      "jew": 3327,
      "mark": 3328,
      "pu": 3329,
      "##uly": 3330,
      "myst": 3331,
      "##gest": 3332,
      "groo": 3333,
      "mercy": 3334,
      "weap": 3335,
      "pleasure": 3336,
      "aut": 3337,
      "history": 3338,
      "vict": 3339,
      "##lter": 3340,
      "##ering": 3341,
      "store": 3342,
      "Whenever": 3343,
      "boyfriend": 3344,
      "fallin": 3345,
      "scars": 3346,
      "grand": 3347,
      "##cious": 3348,
      "surprise": 3349,
      "Darling": 3350,
      "Words": 3351,
      "Yay": 3352,
      "buck": 3353,
      "dy": 3354,
      "fate": 3355,
      "fears": 3356,
      "hook": 3357,
      "mod": 3358,
      "ry": 3359,
      "vol": 3360,
      "##oth": 3361,
      "gives": 3362,
      "flag": 3363,
      "waves": 3364,
      "slay": 3365,
      "highway": 3366,
      "strength": 3367,
      "crash": 3368,
      "##itchen": 3369,
      "]:": 3370,
      "cro": 3371,
      "kisses": 3372,
      "##mo": 3373,
      "##wind": 3374,
      "##erk": 3375,
      "##reet": 3376,
      "beside": 3377,
      "##rapped": 3378,
      "showed": 3379,
      "underneath": 3380,
      "exist": 3381,
      "brave": 3382,
      "happening": 3383,
      "complete": 3384,
      "Singing": 3385,
      "questions": 3386,
      "hungry": 3387,
      "Hand": 3388,
      "cow": 3389,
      "fist": 3390,
      "heel": 3391,
      "kitchen": 3392,
      "ant": 3393,
      "comm": 3394,
      "##beat": 3395,
      "Sleep": 3396,
      "Drop": 3397,
      "dressed": 3398,
      "Di": 3399,
      "eas": 3400,
      "jud": 3401,
      "##itude": 3402,
      "##amb": 3403,
      "blast": 3404,
      "##ify": 3405,
      "exact": 3406,
      "grew": 3407,
      "cheap": 3408,
      "south": 3409,
      "disc": 3410,
      "dollar": 3411,
      "American": 3412,
      "merry": 3413,
      "Queen": 3414,
      "animal": 3415,
      "Rain": 3416,
      "rum": 3417,
      "##rr": 3418,
      "##EA": 3419,
      "##kend": 3420,
      "list": 3421,
      "##oop": 3422,
      "form": 3423,
      "Somewhere": 3424,
      "##arsh": 3425,
      "rainb": 3426,
      "crib": 3427,
      "bridge": 3428,
      "amazing": 3429,
      "Beautiful": 3430,
      "aah": 3431,
      "electric": 3432,
      "lit": 3433,
      "master": 3434,
      "psy": 3435,
      "tick": 3436,
      "##vi": 3437,
      "##resh": 3438,
      "toy": 3439,
      "limit": 3440,
      "rocking": 3441,
      "grace": 3442,
      "appl": 3443,
      "wasted": 3444,
      "Heart": 3445,
      "Fin": 3446,
      "Made": 3447,
      "cond": 3448,
      "hmm": 3449,
      "liqu": 3450,
      "##akes": 3451,
      "##ada": 3452,
      "noise": 3453,
      "##ages": 3454,
      "exp": 3455,
      "rollin": 3456,
      "##airs": 3457,
      "vision": 3458,
      "Caught": 3459,
      "blew": 3460,
      "pink": 3461,
      "##aim": 3462,
      "##cing": 3463,
      "##cess": 3464,
      "##ved": 3465,
      "stun": 3466,
      "stood": 3467,
      "stones": 3468,
      "roses": 3469,
      "##ender": 3470,
      "Inside": 3471,
      "##ult": 3472,
      "others": 3473,
      "calm": 3474,
      "Lost": 3475,
      "Pop": 3476,
      "cig": 3477,
      "ou": 3478,
      "rings": 3479,
      "wer": 3480,
      "##town": 3481,
      "##king": 3482,
      "##ges": 3483,
      "##ano": 3484,
      "##alal": 3485,
      "closed": 3486,
      "rose": 3487,
      "lived": 3488,
      "teeth": 3489,
      "cam": 3490,
      "path": 3491,
      "##gly": 3492,
      "##ero": 3493,
      "spread": 3494,
      "conne": 3495,
      "holy": 3496,
      "acting": 3497,
      "Feeling": 3498,
      "signs": 3499,
      "champagne": 3500,
      "En": 3501,
      "Mom": 3502,
      "Po": 3503,
      "cell": 3504,
      "fro": 3505,
      "wound": 3506,
      "##mp": 3507,
      "##mare": 3508,
      "##bra": 3509,
      "##ital": 3510,
      "##esh": 3511,
      "##nal": 3512,
      "##ries": 3513,
      "##ief": 3514,
      "plane": 3515,
      "##ils": 3516,
      "##arden": 3517,
      "smack": 3518,
      "grass": 3519,
      "drama": 3520,
      "##phone": 3521,
      "Thinking": 3522,
      "bells": 3523,
      "silver": 3524,
      "')[": 3525,
      "Mad": 3526,
      "Ob": 3527,
      "Off": 3528,
      "Ready": 3529,
      "pal": 3530,
      "##ler": 3531,
      "##uation": 3532,
      "thin": 3533,
      "##orth": 3534,
      "flight": 3535,
      "flaw": 3536,
      "bitter": 3537,
      "##ances": 3538,
      "burns": 3539,
      "deeper": 3540,
      "midnight": 3541,
      "spinning": 3542,
      "horse": 3543,
      "Tom": 3544,
      "gentle": 3545,
      "punk": 3546,
      "si": 3547,
      "##ted": 3548,
      "##ided": 3549,
      "##illa": 3550,
      "Str": 3551,
      "##ighb": 3552,
      "poppin": 3553,
      "##hetto": 3554,
      "Pro": 3555,
      "Ra": 3556,
      "digg": 3557,
      "fashion": 3558,
      "gy": 3559,
      "##HH": 3560,
      "##asure": 3561,
      "##aul": 3562,
      "Three": 3563,
      "##roy": 3564,
      "##roat": 3565,
      "##aret": 3566,
      "sche": 3567,
      "twenty": 3568,
      "reality": 3569,
      "weekend": 3570,
      "rule": 3571,
      "medic": 3572,
      "Super": 3573,
      "Earth": 3574,
      "Je": 3575,
      "Real": 3576,
      "bear": 3577,
      "fil": 3578,
      "pa": 3579,
      "##erv": 3580,
      "hah": 3581,
      "calls": 3582,
      "drugs": 3583,
      "imagine": 3584,
      "Believe": 3585,
      "]{": 3586,
      "hiding": 3587,
      "##iving": 3588,
      "##hood": 3589,
      "doctor": 3590,
      "breaks": 3591,
      "hurry": 3592,
      "actin": 3593,
      "planet": 3594,
      "Sex": 3595,
      "Benz": 3596,
      "machine": 3597,
      "19": 3598,
      "foc": 3599,
      "##lla": 3600,
      "liar": 3601,
      "##off": 3602,
      "plastic": 3603,
      "faces": 3604,
      "prote": 3605,
      "Blow": 3606,
      "cries": 3607,
      "chains": 3608,
      "##fully": 3609,
      "##fetime": 3610,
      "Pretty": 3611,
      "celebrate": 3612,
      "conversation": 3613,
      "Nah": 3614,
      "Ro": 3615,
      "cher": 3616,
      "}[": 3617,
      "##kest": 3618,
      "lifetime": 3619,
      "shirt": 3620,
      "neighb": 3621,
      "letting": 3622,
      "leg": 3623,
      "Forget": 3624,
      "##utha": 3625,
      "team": 3626,
      "Used": 3627,
      "fancy": 3628,
      "owe": 3629,
      "##itate": 3630,
      "##orry": 3631,
      "bend": 3632,
      "const": 3633,
      "cruel": 3634,
      "changes": 3635,
      "satisfied": 3636,
      "Okay": 3637,
      "Today": 3638,
      "Promise": 3639,
      "TV": 3640,
      "fur": 3641,
      "lust": 3642,
      "naked": 3643,
      "rip": 3644,
      "##ien": 3645,
      "##gain": 3646,
      "##-[": 3647,
      "beyond": 3648,
      "##ives": 3649,
      "nightmare": 3650,
      "heartbeat": 3651,
      "##istol": 3652,
      "beach": 3653,
      "action": 3654,
      "blows": 3655,
      "Running": 3656,
      "cops": 3657,
      "weren": 3658,
      "Jane": 3659,
      "dime": 3660,
      "lord": 3661,
      "…[": 3662,
      "##joy": 3663,
      "youth": 3664,
      "wash": 3665,
      "trash": 3666,
      "succ": 3667,
      "evening": 3668,
      "##izz": 3669,
      "melody": 3670,
      "attack": 3671,
      "breeze": 3672,
      "Act": 3673,
      "Hang": 3674,
      "fan": 3675,
      "ugly": 3676,
      "##OO": 3677,
      "veins": 3678,
      "daylight": 3679,
      "Stick": 3680,
      "##asty": 3681,
      "##aga": 3682,
      "hits": 3683,
      "promised": 3684,
      "magaz": 3685,
      "searching": 3686,
      "Dis": 3687,
      "Funk": 3688,
      "MC": 3689,
      "Sn": 3690,
      "Sorry": 3691,
      "din": 3692,
      "mutha": 3693,
      "pot": 3694,
      "##icious": 3695,
      "sac": 3696,
      "Shoot": 3697,
      "shows": 3698,
      "cares": 3699,
      "meaning": 3700,
      "stress": 3701,
      "matters": 3702,
      "sucker": 3703,
      "fantasy": 3704,
      "ought": 3705,
      ";[": 3706,
      "Has": 3707,
      "gay": 3708,
      "jail": 3709,
      "opp": 3710,
      "ticket": 3711,
      "##stick": 3712,
      "havin": 3713,
      "shines": 3714,
      "##icide": 3715,
      "laid": 3716,
      "rob": 3717,
      "Together": 3718,
      "Spin": 3719,
      "##lights": 3720,
      "passion": 3721,
      "keys": 3722,
      "##uuuu": 3723,
      "Friday": 3724,
      "barely": 3725,
      "gener": 3726,
      "World": 3727,
      "er": 3728,
      "wire": 3729,
      "##ga": 3730,
      "##ertain": 3731,
      "##ids": 3732,
      "sees": 3733,
      "tellin": 3734,
      "brown": 3735,
      "smart": 3736,
      "written": 3737,
      "stops": 3738,
      "Lookin": 3739,
      "givin": 3740,
      "decide": 3741,
      "syst": 3742,
      "candle": 3743,
      "animals": 3744,
      "split": 3745,
      "heels": 3746,
      "'?[": 3747,
      "Gl": 3748,
      "War": 3749,
      "garden": 3750,
      "pants": 3751,
      "rat": 3752,
      "wrap": 3753,
      "##va": 3754,
      "west": 3755,
      "shell": 3756,
      "claim": 3757,
      "spoke": 3758,
      "Wherever": 3759,
      "changing": 3760,
      "confused": 3761,
      "motha": 3762,
      "bleeding": 3763,
      "squee": 3764,
      "twisted": 3765,
      "exactly": 3766,
      "rainbow": 3767,
      "Bri": 3768,
      "card": 3769,
      "ghetto": 3770,
      "lou": 3771,
      "##ball": 3772,
      "##mes": 3773,
      "beneath": 3774,
      "ship": 3775,
      "##ella": 3776,
      "Ohhh": 3777,
      "##ately": 3778,
      "Street": 3779,
      "##onday": 3780,
      "prison": 3781,
      "Seems": 3782,
      "Ad": 3783,
      "Jim": 3784,
      "Ser": 3785,
      "##dom": 3786,
      "shock": 3787,
      "##naway": 3788,
      "defe": 3789,
      "strugg": 3790,
      "coast": 3791,
      "warning": 3792,
      "saved": 3793,
      "##ments": 3794,
      "promises": 3795,
      "##finite": 3796,
      "nasty": 3797,
      "throat": 3798,
      "##kets": 3799,
      "##ished": 3800,
      "ang": 3801,
      "whenever": 3802,
      "##ilty": 3803,
      "watchin": 3804,
      "begins": 3805,
      "adore": 3806,
      "pulled": 3807,
      "Holding": 3808,
      "strike": 3809,
      "wishing": 3810,
      "search": 3811,
      "chasing": 3812,
      "mystery": 3813,
      "liquor": 3814,
      "cigaret": 3815,
      "Hur": 3816,
      "Taking": 3817,
      "bank": 3818,
      "crew": 3819,
      "dee": 3820,
      "food": 3821,
      "tou": 3822,
      "##ints": 3823,
      "chose": 3824,
      "lean": 3825,
      "suff": 3826,
      "Isn": 3827,
      "walkin": 3828,
      "Getting": 3829,
      "kissing": 3830,
      "early": 3831,
      "scratch": 3832,
      "course": 3833,
      "Body": 3834,
      "Round": 3835,
      "ears": 3836,
      "hes": 3837,
      "nature": 3838,
      "##eor": 3839,
      "##nes": 3840,
      "##back": 3841,
      "onto": 3842,
      "inf": 3843,
      "bec": 3844,
      "##ooo": 3845,
      "fort": 3846,
      "##urch": 3847,
      "spray": 3848,
      "....": 3849,
      "callin": 3850,
      "Shut": 3851,
      "believer": 3852,
      "bubble": 3853,
      "hoe": 3854,
      "priv": 3855,
      "Watching": 3856,
      "complain": 3857,
      "##flies": 3858,
      "##ossible": 3859,
      "Bar": 3860,
      "Bob": 3861,
      "Mo": 3862,
      "]|": 3863,
      "map": 3864,
      "melt": 3865,
      "##etro": 3866,
      "##ley": 3867,
      "knowing": 3868,
      "shape": 3869,
      "nose": 3870,
      "##elly": 3871,
      "##roup": 3872,
      "##arent": 3873,
      "below": 3874,
      "headed": 3875,
      "Tryna": 3876,
      "faster": 3877,
      "waterfall": 3878,
      "difference": 3879,
      "destroy": 3880,
      "fairy": 3881,
      "Yayo": 3882,
      "*[": 3883,
      "Hook": 3884,
      "date": 3885,
      "hips": 3886,
      "nation": 3887,
      "tu": 3888,
      "wise": 3889,
      "x2": 3890,
      "##pers": 3891,
      "##era": 3892,
      "toe": 3893,
      "steel": 3894,
      "welcome": 3895,
      "shady": 3896,
      "willing": 3897,
      "....[": 3898,
      "##iled": 3899,
      "ord": 3900,
      "ourselves": 3901,
      "def": 3902,
      "poet": 3903,
      "blowing": 3904,
      "lately": 3905,
      "boat": 3906,
      "moonlight": 3907,
      "riding": 3908,
      "Scream": 3909,
      "##attoo": 3910,
      "innocent": 3911,
      "Party": 3912,
      "---------------------------------": 3913,
      "Bon": 3914,
      "Fire": 3915,
      "cream": 3916,
      "cure": 3917,
      "ec": 3918,
      "fe": 3919,
      "mil": 3920,
      "tune": 3921,
      "##nds": 3922,
      "lovely": 3923,
      "shall": 3924,
      "poison": 3925,
      "mission": 3926,
      "growing": 3927,
      "applause": 3928,
      "Satur": 3929,
      "YO": 3930,
      "bro": 3931,
      "cards": 3932,
      "pow": 3933,
      "##itches": 3934,
      "inv": 3935,
      "##icate": 3936,
      "##ames": 3937,
      "slap": 3938,
      "moved": 3939,
      "greed": 3940,
      "cost": 3941,
      "##fection": 3942,
      "brick": 3943,
      "risk": 3944,
      "Crazy": 3945,
      "Saturday": 3946,
      "Cut": 3947,
      "Gang": 3948,
      "Pray": 3949,
      "Told": 3950,
      "##aire": 3951,
      "##vity": 3952,
      "##par": 3953,
      "##eam": 3954,
      "##utes": 3955,
      "stain": 3956,
      "steady": 3957,
      "shy": 3958,
      "Them": 3959,
      "West": 3960,
      "thinks": 3961,
      "##tage": 3962,
      "Beat": 3963,
      "careful": 3964,
      "finish": 3965,
      "summertime": 3966,
      "para": 3967,
      "ignore": 3968,
      "stomach": 3969,
      "Finally": 3970,
      "Eng": 3971,
      "cor": 3972,
      "dude": 3973,
      "hug": 3974,
      "hollow": 3975,
      "pe": 3976,
      "sour": 3977,
      "unt": 3978,
      "##zen": 3979,
      "##itter": 3980,
      "##ising": 3981,
      "##idence": 3982,
      "##ado": 3983,
      "##raph": 3984,
      "ending": 3985,
      "##though": 3986,
      "note": 3987,
      "notice": 3988,
      "plate": 3989,
      "Shout": 3990,
      "minds": 3991,
      "shoulda": 3992,
      "rocks": 3993,
      "workin": 3994,
      "grey": 3995,
      "curse": 3996,
      "emotion": 3997,
      "Knock": 3998,
      "wreck": 3999,
      "pupp": 4000,
      ".\"[": 4001,
      "Ring": 4002,
      "##eh": 4003,
      "##de": 4004,
      "##down": 4005,
      "##}[": 4006,
      "thick": 4007,
      "liked": 4008,
      "Soon": 4009,
      "Everywhere": 4010,
      "unf": 4011,
      "beast": 4012,
      "Angel": 4013,
      "post": 4014,
      "desert": 4015,
      "Clap": 4016,
      "Close": 4017,
      "balls": 4018,
      "darkest": 4019,
      "sneak": 4020,
      "enemies": 4021,
      "Happy": 4022,
      "''": 4023,
      "Bre": 4024,
      "Pap": 4025,
      "Rem": 4026,
      "cas": 4027,
      "certain": 4028,
      "jack": 4029,
      "natur": 4030,
      "ped": 4031,
      "##net": 4032,
      "##ino": 4033,
      "##inary": 4034,
      "##ari": 4035,
      "force": 4036,
      "##aine": 4037,
      "goodnight": 4038,
      "flick": 4039,
      "holdin": 4040,
      "happiness": 4041,
      "mornin": 4042,
      "dropped": 4043,
      "final": 4044,
      "Unless": 4045,
      "resist": 4046,
      "bullets": 4047,
      "boots": 4048,
      "Straight": 4049,
      "groove": 4050,
      ".)[": 4051,
      "OO": 4052,
      "Such": 4053,
      "dam": 4054,
      "hill": 4055,
      "##la": 4056,
      "##vana": 4057,
      "##essed": 4058,
      "##nam": 4059,
      "##lyn": 4060,
      "waited": 4061,
      "starlight": 4062,
      "seconds": 4063,
      "police": 4064,
      "pouring": 4065,
      "holiday": 4066,
      "holla": 4067,
      "victim": 4068,
      "##arshall": 4069,
      "---------": 4070,
      "Again": 4071,
      "Four": 4072,
      "Huh": 4073,
      "Kick": 4074,
      "Paul": 4075,
      "]*": 4076,
      "mile": 4077,
      "wrist": 4078,
      "##ycle": 4079,
      "##gun": 4080,
      "##rest": 4081,
      "##ara": 4082,
      "base": 4083,
      "##ters": 4084,
      "##roll": 4085,
      "clown": 4086,
      "##oyd": 4087,
      "slee": 4088,
      "proof": 4089,
      "arri": 4090,
      "disease": 4091,
      "Niggaz": 4092,
      "fools": 4093,
      "motherfuckers": 4094,
      "thru": 4095,
      "motion": 4096,
      "superstar": 4097,
      "patience": 4098,
      "extra": 4099,
      "judge": 4100,
      "Cold": 4101,
      "Gr": 4102,
      "Geor": 4103,
      "Home": 4104,
      "Ride": 4105,
      "South": 4106,
      "Tra": 4107,
      "bom": 4108,
      "mam": 4109,
      "pistol": 4110,
      "##anic": 4111,
      "shaking": 4112,
      "##ala": 4113,
      "sheets": 4114,
      "##ooklyn": 4115,
      "suit": 4116,
      "stret": 4117,
      "Annie": 4118,
      "records": 4119,
      "drinking": 4120,
      "impossible": 4121,
      "patient": 4122,
      "medicine": 4123,
      "Came": 4124,
      "Jud": 4125,
      "Sitting": 4126,
      "es": 4127,
      "punch": 4128,
      "##iers": 4129,
      "##ris": 4130,
      "##eech": 4131,
      "stack": 4132,
      "kno": 4133,
      "ham": 4134,
      "##ucky": 4135,
      "common": 4136,
      "screw": 4137,
      "heads": 4138,
      "startin": 4139,
      "strang": 4140,
      "rolled": 4141,
      "madness": 4142,
      "screamin": 4143,
      "passing": 4144,
      "windows": 4145,
      "runaway": 4146,
      "Doesn": 4147,
      "Dancing": 4148,
      "yummy": 4149,
      "Meet": 4150,
      "Summer": 4151,
      "ban": 4152,
      "fish": 4153,
      "tur": 4154,
      "tape": 4155,
      "vac": 4156,
      "wrapped": 4157,
      "##ners": 4158,
      "##bles": 4159,
      "##hile": 4160,
      "##IT": 4161,
      "##anity": 4162,
      "church": 4163,
      "aren": 4164,
      "Everyday": 4165,
      "present": 4166,
      "works": 4167,
      "poss": 4168,
      "staring": 4169,
      "brighter": 4170,
      "##ungle": 4171,
      "complicated": 4172,
      "emotions": 4173,
      "system": 4174,
      "Bra": 4175,
      "Gaga": 4176,
      "Haha": 4177,
      "Us": 4178,
      "]‘": 4179,
      "cab": 4180,
      "det": 4181,
      "dice": 4182,
      "fed": 4183,
      "naught": 4184,
      "zone": 4185,
      "##![": 4186,
      "##render": 4187,
      "bas": 4188,
      "##iest": 4189,
      "##ache": 4190,
      "##ours": 4191,
      "hotel": 4192,
      "begun": 4193,
      "##load": 4194,
      "darlin": 4195,
      "loser": 4196,
      "knocking": 4197,
      "Ooooh": 4198,
      "direction": 4199,
      "-----------------": 4200,
      "Ll": 4201,
      "Picture": 4202,
      "Whe": 4203,
      "bath": 4204,
      "gat": 4205,
      "non": 4206,
      "serve": 4207,
      "waking": 4208,
      "##ona": 4209,
      "##arp": 4210,
      "##ops": 4211,
      "label": 4212,
      "lightning": 4213,
      "screen": 4214,
      "guilty": 4215,
      "floating": 4216,
      "##aze": 4217,
      "##azz": 4218,
      "bedroom": 4219,
      "##ograph": 4220,
      "situation": 4221,
      "Havana": 4222,
      "dollars": 4223,
      "##bbed": 4224,
      "bricks": 4225,
      "writing": 4226,
      "Dirty": 4227,
      "Monday": 4228,
      "ease": 4229,
      "nuh": 4230,
      "##so": 4231,
      "##ita": 4232,
      "loaded": 4233,
      "##ishing": 4234,
      "##ceive": 4235,
      "turnin": 4236,
      "sudd": 4237,
      "unless": 4238,
      "rains": 4239,
      "trave": 4240,
      "drift": 4241,
      "lesson": 4242,
      "rappers": 4243,
      "pillow": 4244,
      "rising": 4245,
      "hyp": 4246,
      "butterflies": 4247,
      "sudden": 4248,
      "Col": 4249,
      "Dear": 4250,
      "Pac": 4251,
      "TH": 4252,
      "bord": 4253,
      "coff": 4254,
      "fol": 4255,
      "horn": 4256,
      "silly": 4257,
      "tab": 4258,
      "##oul": 4259,
      "threw": 4260,
      "reck": 4261,
      "haha": 4262,
      "dogs": 4263,
      "##adad": 4264,
      "##ateful": 4265,
      "flat": 4266,
      "enjoy": 4267,
      "##anted": 4268,
      "leads": 4269,
      "counting": 4270,
      "ringing": 4271,
      "relax": 4272,
      "brothers": 4273,
      "Trust": 4274,
      "joint": 4275,
      "bounce": 4276,
      "Eyes": 4277,
      "Written": 4278,
      "watched": 4279,
      "cherry": 4280,
      "Count": 4281,
      "Fill": 4282,
      "Father": 4283,
      "Mc": 4284,
      "equ": 4285,
      "lane": 4286,
      "tha": 4287,
      "bags": 4288,
      "plus": 4289,
      "sail": 4290,
      "stopped": 4291,
      "hurting": 4292,
      "tracks": 4293,
      "foreign": 4294,
      "sins": 4295,
      "compare": 4296,
      "answers": 4297,
      "building": 4298,
      "loca": 4299,
      "vibe": 4300,
      "flawless": 4301,
      "(?": 4302,
      "Jay": 4303,
      "Lone": 4304,
      "Ten": 4305,
      "Tony": 4306,
      "hid": 4307,
      "jungle": 4308,
      "tattoo": 4309,
      "ver": 4310,
      "vio": 4311,
      "##HO": 4312,
      "##00": 4313,
      "##AN": 4314,
      "##ott": 4315,
      "##sec": 4316,
      "station": 4317,
      "##itted": 4318,
      "tells": 4319,
      "slide": 4320,
      "smiling": 4321,
      "##acy": 4322,
      "cryin": 4323,
      "phot": 4324,
      "minutes": 4325,
      "ayy": 4326,
      "rider": 4327,
      "raised": 4328,
      "Playing": 4329,
      "circles": 4330,
      "idea": 4331,
      "##volution": 4332,
      "pimp": 4333,
      "telephone": 4334,
      "naughty": 4335,
      "?)": 4336,
      "Broke": 4337,
      "Hmm": 4338,
      "Lear": 4339,
      "Sit": 4340,
      "bars": 4341,
      "sang": 4342,
      "##ule": 4343,
      "##val": 4344,
      "##11": 4345,
      "##rase": 4346,
      "##thy": 4347,
      "Lift": 4348,
      "trunk": 4349,
      "ours": 4350,
      "deb": 4351,
      "sunlight": 4352,
      "walks": 4353,
      "string": 4354,
      "brains": 4355,
      "Brooklyn": 4356,
      "shooting": 4357,
      "booty": 4358,
      "Falling": 4359,
      "disguise": 4360,
      "**": 4361,
      "Lau": 4362,
      "Power": 4363,
      "bi": 4364,
      "pun": 4365,
      "que": 4366,
      "size": 4367,
      "tide": 4368,
      "##sion": 4369,
      "##urs": 4370,
      "##ically": 4371,
      "blade": 4372,
      "heartbreak": 4373,
      "flood": 4374,
      "plays": 4375,
      "conc": 4376,
      "stayed": 4377,
      "unl": 4378,
      "##attered": 4379,
      "Calling": 4380,
      "lyrics": 4381,
      "addicted": 4382,
      "months": 4383,
      "easier": 4384,
      "Lucky": 4385,
      "Tear": 4386,
      "est": 4387,
      "mall": 4388,
      "##avor": 4389,
      "##ique": 4390,
      "##ka": 4391,
      "##bs": 4392,
      "##gue": 4393,
      "##uts": 4394,
      "stories": 4395,
      "bab": 4396,
      "bass": 4397,
      "##cence": 4398,
      "##rage": 4399,
      "runs": 4400,
      "dev": 4401,
      "deg": 4402,
      "Ask": 4403,
      "funky": 4404,
      "blowin": 4405,
      "##umbling": 4406,
      "##ooooh": 4407,
      "confess": 4408,
      "Left": 4409,
      "circle": 4410,
      "##icken": 4411,
      "nuts": 4412,
      "crawl": 4413,
      "snap": 4414,
      "Born": 4415,
      "Old": 4416,
      "bother": 4417,
      "faded": 4418,
      "mill": 4419,
      "picked": 4420,
      "##utter": 4421,
      "##ision": 4422,
      "ohhh": 4423,
      "wanting": 4424,
      "everytime": 4425,
      "##rove": 4426,
      "Babe": 4427,
      "truly": 4428,
      "leavin": 4429,
      "prep": 4430,
      "names": 4431,
      "stands": 4432,
      "buzz": 4433,
      "unc": 4434,
      "coat": 4435,
      "Alone": 4436,
      "design": 4437,
      "settle": 4438,
      "grows": 4439,
      "illusion": 4440,
      "bottles": 4441,
      "##visible": 4442,
      "24": 4443,
      "Marshall": 4444,
      "Sur": 4445,
      "ori": 4446,
      "pills": 4447,
      "##do": 4448,
      "##rome": 4449,
      "inch": 4450,
      "##cember": 4451,
      "##ality": 4452,
      "##ubl": 4453,
      "began": 4454,
      "Tryin": 4455,
      "sadness": 4456,
      "dreamed": 4457,
      "strip": 4458,
      "silent": 4459,
      "mention": 4460,
      "Phresh": 4461,
      "constant": 4462,
      "Billy": 4463,
      "East": 4464,
      "Each": 4465,
      "Fre": 4466,
      "Jo": 4467,
      "bills": 4468,
      "daughter": 4469,
      "ego": 4470,
      "group": 4471,
      "rac": 4472,
      "tun": 4473,
      "tie": 4474,
      "wand": 4475,
      "trade": 4476,
      "Shorty": 4477,
      "Shawty": 4478,
      "hardly": 4479,
      "##osp": 4480,
      "standin": 4481,
      "freez": 4482,
      "roller": 4483,
      "souls": 4484,
      "resp": 4485,
      "metal": 4486,
      "ridin": 4487,
      "Talking": 4488,
      "misery": 4489,
      "Instead": 4490,
      "louder": 4491,
      ":)[": 4492,
      "Mi": 4493,
      "Sim": 4494,
      "lang": 4495,
      "pum": 4496,
      "parent": 4497,
      "##fort": 4498,
      "##ashed": 4499,
      "haunt": 4500,
      "chances": 4501,
      "##ushing": 4502,
      "##pper": 4503,
      "##aker": 4504,
      "able": 4505,
      "flesh": 4506,
      "level": 4507,
      "prin": 4508,
      "Ref": 4509,
      "relig": 4510,
      "colors": 4511,
      "##========": 4512,
      "fading": 4513,
      "entertain": 4514,
      "muthafuck": 4515,
      "coffee": 4516,
      "Ac": 4517,
      "Cake": 4518,
      "Joe": 4519,
      "Sy": 4520,
      "Yesterday": 4521,
      "bill": 4522,
      "kar": 4523,
      "piss": 4524,
      "rear": 4525,
      "sire": 4526,
      "sittin": 4527,
      "tip": 4528,
      "##yon": 4529,
      "##ply": 4530,
      "##stood": 4531,
      "neg": 4532,
      "##gend": 4533,
      "Thats": 4534,
      "##venue": 4535,
      "hardest": 4536,
      "breakin": 4537,
      "surf": 4538,
      "millionaire": 4539,
      "wearing": 4540,
      "attitude": 4541,
      "##iiii": 4542,
      "),[": 4543,
      "Walking": 4544,
      "crossed": 4545,
      "connect": 4546,
      "protect": 4547,
      "Des": 4548,
      "Hah": 4549,
      "Ja": 4550,
      "Tea": 4551,
      "Wind": 4552,
      "Were": 4553,
      "doom": 4554,
      "jac": 4555,
      "row": 4556,
      "rag": 4557,
      "tease": 4558,
      "wow": 4559,
      "##ffect": 4560,
      "##US": 4561,
      "##eared": 4562,
      "##acher": 4563,
      "trigg": 4564,
      "funk": 4565,
      "imma": 4566,
      "##ship": 4567,
      "desper": 4568,
      "steps": 4569,
      "teacher": 4570,
      "##board": 4571,
      "hallelujah": 4572,
      "##letoe": 4573,
      "frame": 4574,
      "weapon": 4575,
      "Diamond": 4576,
      "ecst": 4577,
      "Fa": 4578,
      "Hal": 4579,
      "Hail": 4580,
      "Mm": 4581,
      "Might": 4582,
      "Mem": 4583,
      "ent": 4584,
      "fie": 4585,
      "main": 4586,
      "raw": 4587,
      "tail": 4588,
      "##sp": 4589,
      "##cue": 4590,
      "chop": 4591,
      "chap": 4592,
      "chair": 4593,
      "hearing": 4594,
      "speech": 4595,
      "##ending": 4596,
      "using": 4597,
      "shoulders": 4598,
      "eng": 4599,
      "Forg": 4600,
      "biggest": 4601,
      "crit": 4602,
      "coke": 4603,
      "',[": 4604,
      "cute": 4605,
      "mistletoe": 4606,
      "kicks": 4607,
      "ceiling": 4608,
      "join": 4609,
      "##ervous": 4610,
      "squeeze": 4611,
      "##etroit": 4612,
      "sleeve": 4613,
      "border": 4614,
      "Du": 4615,
      "North": 4616,
      "Push": 4617,
      "]...": 4618,
      "mum": 4619,
      "sed": 4620,
      "vib": 4621,
      "##ox": 4622,
      "##LL": 4623,
      "##nded": 4624,
      "bein": 4625,
      "bent": 4626,
      "rent": 4627,
      "bal": 4628,
      "##ille": 4629,
      "##enny": 4630,
      "##aus": 4631,
      "alarm": 4632,
      "ash": 4633,
      "blown": 4634,
      "##ility": 4635,
      "spill": 4636,
      "fagg": 4637,
      "agree": 4638,
      "trans": 4639,
      "believed": 4640,
      "Plus": 4641,
      "##ogn": 4642,
      "closet": 4643,
      "December": 4644,
      "tempt": 4645,
      "demons": 4646,
      "]:[": 4647,
      "Lloyd": 4648,
      "Bill": 4649,
      "Bull": 4650,
      "Sat": 4651,
      "diss": 4652,
      "nervous": 4653,
      "pure": 4654,
      "##nch": 4655,
      "##ration": 4656,
      "##atched": 4657,
      "toast": 4658,
      "##iting": 4659,
      "##itive": 4660,
      "##lence": 4661,
      "forward": 4662,
      "##ales": 4663,
      "blessed": 4664,
      "comfort": 4665,
      "anytime": 4666,
      "fallen": 4667,
      "separ": 4668,
      "##ggin": 4669,
      "wasting": 4670,
      "Rolling": 4671,
      "rapper": 4672,
      "serious": 4673,
      "porch": 4674,
      "cigarette": 4675,
      "Mid": 4676,
      "ahh": 4677,
      "dump": 4678,
      "effect": 4679,
      "fans": 4680,
      "##lon": 4681,
      "##vation": 4682,
      "##err": 4683,
      "##ative": 4684,
      "##eeter": 4685,
      "load": 4686,
      "##arant": 4687,
      "##ens": 4688,
      "Sha": 4689,
      "Child": 4690,
      "suicide": 4691,
      "bud": 4692,
      "strap": 4693,
      "Brown": 4694,
      "##..[": 4695,
      "Wouldn": 4696,
      "famous": 4697,
      "temper": 4698,
      "sinking": 4699,
      "focus": 4700,
      "langu": 4701,
      "Dor": 4702,
      "Mind": 4703,
      "Pre": 4704,
      "dat": 4705,
      "hills": 4706,
      "ven": 4707,
      "wipe": 4708,
      "##over": 4709,
      "##ghed": 4710,
      "##ered": 4711,
      "##asses": 4712,
      "##urb": 4713,
      "##unny": 4714,
      "##rise": 4715,
      "chrome": 4716,
      "hel": 4717,
      "##ili": 4718,
      "Dont": 4719,
      "order": 4720,
      "Behind": 4721,
      "leather": 4722,
      "sunset": 4723,
      "##play": 4724,
      "drippin": 4725,
      "##apped": 4726,
      "##iano": 4727,
      "purple": 4728,
      "Merry": 4729,
      "Really": 4730,
      "psych": 4731,
      "hammer": 4732,
      "Amen": 4733,
      "Detroit": 4734,
      "Face": 4735,
      "Gold": 4736,
      "Kim": 4737,
      "Sad": 4738,
      "]-": 4739,
      "cats": 4740,
      "kicked": 4741,
      "pear": 4742,
      "pool": 4743,
      "um": 4744,
      "##gr": 4745,
      "##fly": 4746,
      "##IN": 4747,
      "##anie": 4748,
      "whore": 4749,
      "##ences": 4750,
      "##ript": 4751,
      "anger": 4752,
      "Which": 4753,
      "##ssip": 4754,
      "Everytime": 4755,
      "headlights": 4756,
      "Doc": 4757,
      "affection": 4758,
      "##xteen": 4759,
      "grateful": 4760,
      "opened": 4761,
      "surround": 4762,
      "##scape": 4763,
      "Smile": 4764,
      "holes": 4765,
      "Hands": 4766,
      "success": 4767,
      "private": 4768,
      "Lonely": 4769,
      "language": 4770,
      "Mag": 4771,
      "billion": 4772,
      "gar": 4773,
      "lu": 4774,
      "##lish": 4775,
      "##ume": 4776,
      "##damn": 4777,
      "##walk": 4778,
      "third": 4779,
      "stud": 4780,
      "forth": 4781,
      "shade": 4782,
      "seemed": 4783,
      "##aint": 4784,
      "##iced": 4785,
      "##isters": 4786,
      "holds": 4787,
      "daw": 4788,
      "trippin": 4789,
      "trail": 4790,
      "travel": 4791,
      "kills": 4792,
      "sweetest": 4793,
      "bloody": 4794,
      "recogn": 4795,
      "Holy": 4796,
      "destiny": 4797,
      "lipstick": 4798,
      "struggle": 4799,
      "became": 4800,
      "Hoo": 4801,
      "Lil": 4802,
      "Pay": 4803,
      "YEA": 4804,
      "cage": 4805,
      "ima": 4806,
      "jet": 4807,
      "pee": 4808,
      "rot": 4809,
      "rope": 4810,
      "sake": 4811,
      "yard": 4812,
      "##aah": 4813,
      "##cin": 4814,
      "##wards": 4815,
      "##ety": 4816,
      "insec": 4817,
      "##ades": 4818,
      "##ency": 4819,
      "##ication": 4820,
      "sale": 4821,
      "yah": 4822,
      "putting": 4823,
      "smiles": 4824,
      "dreamin": 4825,
      "underground": 4826,
      "guide": 4827,
      "singin": 4828,
      "dais": 4829,
      "killin": 4830,
      "mighty": 4831,
      "##hys": 4832,
      "Boys": 4833,
      "drinks": 4834,
      "Drink": 4835,
      "insp": 4836,
      "court": 4837,
      "##rified": 4838,
      "smoking": 4839,
      "Brian": 4840,
      "angry": 4841,
      "Electric": 4842,
      "Wit": 4843,
      "rage": 4844,
      "tour": 4845,
      "##liness": 4846,
      "##ef": 4847,
      "##cal": 4848,
      "thirty": 4849,
      "##ays": 4850,
      "##lex": 4851,
      "shore": 4852,
      "blond": 4853,
      "saving": 4854,
      "flavor": 4855,
      "##aped": 4856,
      "Somethin": 4857,
      "strings": 4858,
      "##----------------------------": 4859,
      "surrender": 4860,
      "Bye": 4861,
      "regrets": 4862,
      "##alent": 4863,
      "forgiveness": 4864,
      "##ginal": 4865,
      "position": 4866,
      "letters": 4867,
      "!!![": 4868,
      "Hoping": 4869,
      "replay": 4870,
      "bodied": 4871,
      "Jimmy": 4872,
      "ordinary": 4873,
      "Dra": 4874,
      "Gone": 4875,
      "Sear": 4876,
      "lung": 4877,
      "sle": 4878,
      "tender": 4879,
      "yay": 4880,
      "##uit": 4881,
      "##hered": 4882,
      "coulda": 4883,
      "Stuck": 4884,
      "player": 4885,
      "score": 4886,
      "freeze": 4887,
      "unk": 4888,
      "##oooooooo": 4889,
      "curtain": 4890,
      "Comin": 4891,
      "homies": 4892,
      "wheels": 4893,
      "mountains": 4894,
      "torture": 4895,
      "parents": 4896,
      "religion": 4897,
      "Fashion": 4898,
      "Har": 4899,
      "Pea": 4900,
      "Sug": 4901,
      "fifty": 4902,
      "pig": 4903,
      "##bits": 4904,
      "##well": 4905,
      "##sess": 4906,
      "stream": 4907,
      "stab": 4908,
      "##lev": 4909,
      "##ened": 4910,
      "aside": 4911,
      "waist": 4912,
      "cracks": 4913,
      "named": 4914,
      "roads": 4915,
      "eating": 4916,
      "excuse": 4917,
      "torn": 4918,
      "##____": 4919,
      "affair": 4920,
      "magazine": 4921,
      "strangers": 4922,
      "911": 4923,
      "Cri": 4924,
      "Ed": 4925,
      "Ice": 4926,
      "couch": 4927,
      "duck": 4928,
      "gga": 4929,
      "yuh": 4930,
      "##gu": 4931,
      "##str": 4932,
      "rewind": 4933,
      "##urin": 4934,
      "##iment": 4935,
      "plain": 4936,
      "lap": 4937,
      "comb": 4938,
      "Shot": 4939,
      "quar": 4940,
      "missin": 4941,
      "bringing": 4942,
      "perfectly": 4943,
      "witness": 4944,
      "relation": 4945,
      "troubles": 4946,
      "spinnin": 4947,
      "True": 4948,
      "discover": 4949,
      "extre": 4950,
      "drowning": 4951,
      "mask": 4952,
      "Obie": 4953,
      "Tomorrow": 4954,
      "further": 4955,
      "generation": 4956,
      "fortune": 4957,
      "knocked": 4958,
      "Breat": 4959,
      "Doo": 4960,
      "Dark": 4961,
      "Hum": 4962,
      "Kid": 4963,
      "Other": 4964,
      "Rap": 4965,
      "Rich": 4966,
      "River": 4967,
      "Tried": 4968,
      "cy": 4969,
      "pad": 4970,
      "phys": 4971,
      "ske": 4972,
      "sip": 4973,
      "##sses": 4974,
      "##con": 4975,
      "stunt": 4976,
      "shove": 4977,
      "shawty": 4978,
      "also": 4979,
      "chicken": 4980,
      "##ushed": 4981,
      "eyed": 4982,
      "##ified": 4983,
      "fucker": 4984,
      "##berry": 4985,
      "##ugs": 4986,
      "treasure": 4987,
      "##redible": 4988,
      "moments": 4989,
      "Between": 4990,
      "tech": 4991,
      "thankful": 4992,
      "diva": 4993,
      "apologize": 4994,
      "dinner": 4995,
      "folks": 4996,
      "Freedom": 4997,
      "Cind": 4998,
      "Freak": 4999,
      "Veg": 5000,
      "bunch": 5001,
      "cul": 5002,
      "hon": 5003,
      "lad": 5004,
      "pissed": 5005,
      "rust": 5006,
      "vain": 5007,
      "##zzy": 5008,
      "##yo": 5009,
      "##rodu": 5010,
      "##cci": 5011,
      "messed": 5012,
      "##style": 5013,
      "seed": 5014,
      "##ico": 5015,
      "downtown": 5016,
      "ate": 5017,
      "##oker": 5018,
      "Livin": 5019,
      "produ": 5020,
      "burnin": 5021,
      "Although": 5022,
      "crimin": 5023,
      "Switch": 5024,
      "breathin": 5025,
      "released": 5026,
      "chicks": 5027,
      "impress": 5028,
      "forgotten": 5029,
      "boun": 5030,
      "Dreaming": 5031,
      "Louis": 5032,
      "##atinum": 5033,
      "Burning": 5034,
      "advice": 5035,
      "Broken": 5036,
      "Most": 5037,
      "Sk": 5038,
      "Suck": 5039,
      "Saw": 5040,
      "borrow": 5041,
      "dive": 5042,
      "##bed": 5043,
      "##form": 5044,
      "##ounce": 5045,
      "##hest": 5046,
      "##rel": 5047,
      "threat": 5048,
      "sting": 5049,
      "##ooked": 5050,
      "island": 5051,
      "platinum": 5052,
      "spring": 5053,
      "roots": 5054,
      "slut": 5055,
      "demon": 5056,
      "scary": 5057,
      "##ooth": 5058,
      "project": 5059,
      "##athers": 5060,
      "##ffic": 5061,
      "float": 5062,
      "strapped": 5063,
      "##ricane": 5064,
      "married": 5065,
      "simply": 5066,
      "horses": 5067,
      "movies": 5068,
      "Staring": 5069,
      "smokin": 5070,
      "jewel": 5071,
      "Whether": 5072,
      "reckless": 5073,
      "original": 5074,
      "Half": 5075,
      "dawg": 5076,
      "Vegas": 5077,
      "Gun": 5078,
      "Jam": 5079,
      "Lately": 5080,
      "Tim": 5081,
      "gor": 5082,
      "hun": 5083,
      "mud": 5084,
      "pages": 5085,
      "##hip": 5086,
      "##heart": 5087,
      "##ette": 5088,
      "##verage": 5089,
      "upside": 5090,
      "##adill": 5091,
      "endless": 5092,
      "chin": 5093,
      "##tale": 5094,
      "amb": 5095,
      "convin": 5096,
      "##aced": 5097,
      "realized": 5098,
      "younger": 5099,
      "flower": 5100,
      "laughed": 5101,
      "foolish": 5102,
      "reaching": 5103,
      "shades": 5104,
      "boogie": 5105,
      "refuse": 5106,
      "cking": 5107,
      "Elvis": 5108,
      "innocence": 5109,
      "palm": 5110,
      "ecstasy": 5111,
      "18": 5112,
      "Bat": 5113,
      "Son": 5114,
      "Six": 5115,
      "gain": 5116,
      "nin": 5117,
      "range": 5118,
      "raz": 5119,
      "val": 5120,
      "##vo": 5121,
      "##band": 5122,
      "##gen": 5123,
      "##CK": 5124,
      "##eral": 5125,
      "##step": 5126,
      "##isions": 5127,
      "whist": 5128,
      "choke": 5129,
      "shelter": 5130,
      "##ulate": 5131,
      "##ently": 5132,
      "sweeter": 5133,
      "unit": 5134,
      "unfor": 5135,
      "touching": 5136,
      "yoü": 5137,
      "Speak": 5138,
      "Imag": 5139,
      "board": 5140,
      "cuts": 5141,
      "appre": 5142,
      "explode": 5143,
      "sens": 5144,
      "sym": 5145,
      "##ival": 5146,
      "Underneath": 5147,
      "buried": 5148,
      "Ayy": 5149,
      "bombs": 5150,
      "Louie": 5151,
      "cheek": 5152,
      "undone": 5153,
      "Released": 5154,
      "afford": 5155,
      "camera": 5156,
      "natural": 5157,
      "Laugh": 5158,
      "***": 5159,
      "Aw": 5160,
      "Away": 5161,
      "Grow": 5162,
      "PY": 5163,
      "Sta": 5164,
      "Win": 5165,
      "hi": 5166,
      "ow": 5167,
      "pave": 5168,
      "sum": 5169,
      "sippin": 5170,
      "yeh": 5171,
      "##yal": 5172,
      "##dream": 5173,
      "##gl": 5174,
      "##ressed": 5175,
      "##stal": 5176,
      "##otic": 5177,
      "##otion": 5178,
      "##otha": 5179,
      "bail": 5180,
      "habits": 5181,
      "whats": 5182,
      "##icycle": 5183,
      "worlds": 5184,
      "legend": 5185,
      "guarant": 5186,
      "glove": 5187,
      "crush": 5188,
      "##iction": 5189,
      "pulling": 5190,
      "damned": 5191,
      "Rockin": 5192,
      "import": 5193,
      "deliver": 5194,
      "##box": 5195,
      "swimming": 5196,
      "bodies": 5197,
      "sacrif": 5198,
      "fairytale": 5199,
      "##ublic": 5200,
      "Across": 5201,
      "PYD": 5202,
      "/[": 5203,
      "Fool": 5204,
      "Hi": 5205,
      "Sound": 5206,
      "Woman": 5207,
      "dies": 5208,
      "peep": 5209,
      "rare": 5210,
      "zero": 5211,
      "##vious": 5212,
      "##por": 5213,
      "##cé": 5214,
      "##ON": 5215,
      "##rees": 5216,
      "##idin": 5217,
      "allow": 5218,
      "##uro": 5219,
      "##ram": 5220,
      "vest": 5221,
      "##tern": 5222,
      "ashes": 5223,
      "##ims": 5224,
      "##ures": 5225,
      "Lets": 5226,
      "Char": 5227,
      "hopes": 5228,
      "flows": 5229,
      "Fuckin": 5230,
      "apple": 5231,
      "confidence": 5232,
      "Smoke": 5233,
      "##proof": 5234,
      "creep": 5235,
      "voltage": 5236,
      "trigger": 5237,
      "Diamonds": 5238,
      "Boo": 5239,
      "Hate": 5240,
      "Ir": 5241,
      "Murder": 5242,
      "Peas": 5243,
      "hump": 5244,
      "occ": 5245,
      "pit": 5246,
      "wore": 5247,
      "##math": 5248,
      "##iac": 5249,
      "##zing": 5250,
      "##resent": 5251,
      "##itation": 5252,
      "##stas": 5253,
      "invisible": 5254,
      "often": 5255,
      "stere": 5256,
      "##opp": 5257,
      "seek": 5258,
      "worried": 5259,
      "##ifth": 5260,
      "##ulous": 5261,
      "embra": 5262,
      "##agger": 5263,
      "chem": 5264,
      "gray": 5265,
      "Saying": 5266,
      "ripped": 5267,
      "##ortion": 5268,
      "danced": 5269,
      "Speed": 5270,
      "jumpin": 5271,
      "sticks": 5272,
      "tearing": 5273,
      "throne": 5274,
      "Truth": 5275,
      "intent": 5276,
      "nearly": 5277,
      "typ": 5278,
      "!![": 5279,
      "excited": 5280,
      "grip": 5281,
      "painted": 5282,
      "Grab": 5283,
      "rubber": 5284,
      "woods": 5285,
      "elev": 5286,
      "Wondering": 5287,
      "wounds": 5288,
      "Jean": 5289,
      "Serious": 5290,
      "lungs": 5291,
      "15": 5292,
      "Es": 5293,
      "Ev": 5294,
      "Fifty": 5295,
      "Mac": 5296,
      "Mmm": 5297,
      "Pass": 5298,
      "Sell": 5299,
      "Same": 5300,
      "fold": 5301,
      "feat": 5302,
      "laughter": 5303,
      "pace": 5304,
      "vers": 5305,
      "##ios": 5306,
      "##cl": 5307,
      "##bird": 5308,
      "##fer": 5309,
      "##RE": 5310,
      "woulda": 5311,
      "precious": 5312,
      "afterno": 5313,
      "throwing": 5314,
      "shoe": 5315,
      "losin": 5316,
      "papers": 5317,
      "soldiers": 5318,
      "pressurin": 5319,
      "polit": 5320,
      "imagination": 5321,
      "neighbor": 5322,
      "poetry": 5323,
      "##namite": 5324,
      "suddenly": 5325,
      "babies": 5326,
      "speechless": 5327,
      "Dorado": 5328,
      "Breathe": 5329,
      "\",": 5330,
      "Around": 5331,
      "Cool": 5332,
      "Flo": 5333,
      "Hee": 5334,
      "Ill": 5335,
      "MM": 5336,
      "Pack": 5337,
      "Ven": 5338,
      "Yell": 5339,
      "core": 5340,
      "jaw": 5341,
      "pair": 5342,
      "tit": 5343,
      "wicked": 5344,
      "##obe": 5345,
      "##nse": 5346,
      "##coh": 5347,
      "##work": 5348,
      "##hem": 5349,
      "thief": 5350,
      "stairs": 5351,
      "haun": 5352,
      "shiver": 5353,
      "]()[": 5354,
      "ann": 5355,
      "charm": 5356,
      "Sold": 5357,
      "clue": 5358,
      "##gettable": 5359,
      "##osing": 5360,
      "sings": 5361,
      "army": 5362,
      "glock": 5363,
      "Sayin": 5364,
      "gravity": 5365,
      "Repeat": 5366,
      "Spend": 5367,
      "winning": 5368,
      "##gging": 5369,
      "pretending": 5370,
      "##----------------------------------------------------------------": 5371,
      "Sec": 5372,
      "honestly": 5373,
      "covered": 5374,
      "steppin": 5375,
      "seasons": 5376,
      "towards": 5377,
      "Queens": 5378,
      "mothafuck": 5379,
      "photograph": 5380,
      "princess": 5381,
      "jacket": 5382,
      "##cohol": 5383,
      "----": 5384,
      "22": 5385,
      "Cap": 5386,
      "Either": 5387,
      "Jul": 5388,
      "Pat": 5389,
      "Pump": 5390,
      "UK": 5391,
      "cen": 5392,
      "event": 5393,
      "gal": 5394,
      "mat": 5395,
      "public": 5396,
      "rab": 5397,
      "##ih": 5398,
      "##gia": 5399,
      "##ja": 5400,
      "##AT": 5401,
      "##!!": 5402,
      "##anish": 5403,
      "##ism": 5404,
      "forty": 5405,
      "##rah": 5406,
      "##rain": 5407,
      "lack": 5408,
      "click": 5409,
      "hearted": 5410,
      "daydream": 5411,
      "##ula": 5412,
      "staying": 5413,
      "traffic": 5414,
      "drives": 5415,
      "covers": 5416,
      "tops": 5417,
      "##quer": 5418,
      "dancer": 5419,
      "Rec": 5420,
      "winner": 5421,
      "Many": 5422,
      "rescue": 5423,
      "parano": 5424,
      "kicking": 5425,
      "closing": 5426,
      "Couldn": 5427,
      "courage": 5428,
      "visions": 5429,
      "##vision": 5430,
      "Road": 5431,
      "YOU": 5432,
      "Hailie": 5433,
      "razor": 5434,
      "appreci": 5435,
      "-------------": 5436,
      "Cle": 5437,
      "Fear": 5438,
      "Pol": 5439,
      "Rome": 5440,
      "Radio": 5441,
      "Wrap": 5442,
      "Wishing": 5443,
      "Xscape": 5444,
      "ga": 5445,
      "mmm": 5446,
      "plent": 5447,
      "sides": 5448,
      "##ior": 5449,
      "##born": 5450,
      "##hone": 5451,
      "##AA": 5452,
      "##aring": 5453,
      "sty": 5454,
      "##lest": 5455,
      "##ooms": 5456,
      "shook": 5457,
      "##rior": 5458,
      "abs": 5459,
      "usually": 5460,
      "himself": 5461,
      "believing": 5462,
      "except": 5463,
      "glitter": 5464,
      "pole": 5465,
      "beggin": 5466,
      "following": 5467,
      "restless": 5468,
      "checking": 5469,
      "text": 5470,
      "##active": 5471,
      "terror": 5472,
      "charge": 5473,
      "viol": 5474,
      "sixteen": 5475,
      "puppy": 5476,
      "Breaking": 5477,
      "pedal": 5478,
      "stretch": 5479,
      "Judas": 5480,
      "Sugar": 5481,
      "Both": 5482,
      "Del": 5483,
      "Gave": 5484,
      "Mike": 5485,
      "Res": 5486,
      "Sick": 5487,
      "Squ": 5488,
      "Sky": 5489,
      "fought": 5490,
      "hee": 5491,
      "har": 5492,
      "iron": 5493,
      "mac": 5494,
      "ol": 5495,
      "pet": 5496,
      "”[": 5497,
      "##zed": 5498,
      "##gic": 5499,
      "toes": 5500,
      "thumb": 5501,
      "##ites": 5502,
      "##sters": 5503,
      "shakin": 5504,
      "herself": 5505,
      "alcohol": 5506,
      "chat": 5507,
      "flies": 5508,
      "waving": 5509,
      "##aps": 5510,
      "slim": 5511,
      "Being": 5512,
      "Beyon": 5513,
      "##athy": 5514,
      "Takes": 5515,
      "argue": 5516,
      "fires": 5517,
      "tricks": 5518,
      "##izzy": 5519,
      "wonderland": 5520,
      "Keeping": 5521,
      "lots": 5522,
      "lotta": 5523,
      "##....": 5524,
      "Thinkin": 5525,
      "Knowing": 5526,
      "tax": 5527,
      "sellin": 5528,
      "burst": 5529,
      "Motherfuck": 5530,
      "-------": 5531,
      "replace": 5532,
      "fades": 5533,
      "Build": 5534,
      "Paris": 5535,
      "Momma": 5536,
      "touched": 5537,
      "afternoon": 5538,
      "Dou": 5539,
      "Die": 5540,
      "Friend": 5541,
      "Gre": 5542,
      "Gal": 5543,
      "Mic": 5544,
      "Pour": 5545,
      "Roc": 5546,
      "Soul": 5547,
      "ee": 5548,
      "fright": 5549,
      "pil": 5550,
      "packed": 5551,
      "##ians": 5552,
      "##ding": 5553,
      "##ckets": 5554,
      "##erella": 5555,
      "##seng": 5556,
      "revolution": 5557,
      "##nage": 5558,
      "Thr": 5559,
      "Thunder": 5560,
      "rocket": 5561,
      "stays": 5562,
      "coc": 5563,
      "raps": 5564,
      "jumping": 5565,
      "aye": 5566,
      "Wasn": 5567,
      "pushed": 5568,
      "radioactive": 5569,
      "captain": 5570,
      "booth": 5571,
      "selfish": 5572,
      "collide": 5573,
      "stepped": 5574,
      "Carry": 5575,
      "Jackson": 5576,
      "English": 5577,
      "OOh": 5578,
      "##errari": 5579,
      "daisies": 5580,
      "embrace": 5581,
      "center": 5582,
      "Cross": 5583,
      "Dom": 5584,
      "Fame": 5585,
      "Psy": 5586,
      "Sa": 5587,
      "Sure": 5588,
      "Top": 5589,
      "Van": 5590,
      "east": 5591,
      "gate": 5592,
      "kings": 5593,
      "pon": 5594,
      "una": 5595,
      "wears": 5596,
      "x4": 5597,
      "##ti": 5598,
      "##oint": 5599,
      "##ito": 5600,
      "beh": 5601,
      "##ida": 5602,
      "gods": 5603,
      "##ami": 5604,
      "needle": 5605,
      "theres": 5606,
      "##angled": 5607,
      "offer": 5608,
      "Ste": 5609,
      "brotha": 5610,
      "sweep": 5611,
      "sword": 5612,
      "struck": 5613,
      "hurricane": 5614,
      "trap": 5615,
      "prov": 5616,
      "##psy": 5617,
      "shotgun": 5618,
      "##ront": 5619,
      "desc": 5620,
      "finished": 5621,
      "praying": 5622,
      "laying": 5623,
      "release": 5624,
      "humble": 5625,
      "ruin": 5626,
      "batt": 5627,
      "represent": 5628,
      "##dding": 5629,
      "serv": 5630,
      "ghosts": 5631,
      "nuttin": 5632,
      "apologies": 5633,
      "castle": 5634,
      "jewels": 5635,
      "weapons": 5636,
      "model": 5637,
      "hesitate": 5638,
      "hypnot": 5639,
      "plenty": 5640,
      "Ahh": 5641,
      "Five": 5642,
      "Moon": 5643,
      "Rub": 5644,
      "Sus": 5645,
      "Tok": 5646,
      "Went": 5647,
      "bike": 5648,
      "bicycle": 5649,
      "fifth": 5650,
      "oper": 5651,
      "sig": 5652,
      "tiny": 5653,
      "##ann": 5654,
      "##ken": 5655,
      "##storm": 5656,
      "infl": 5657,
      "rely": 5658,
      "##aser": 5659,
      "habit": 5660,
      "cann": 5661,
      "##iller": 5662,
      "solo": 5663,
      "Whis": 5664,
      "##iggie": 5665,
      "##aged": 5666,
      "stopping": 5667,
      "Doing": 5668,
      "sund": 5669,
      "parts": 5670,
      "wolf": 5671,
      "cheat": 5672,
      "drivin": 5673,
      "##aterial": 5674,
      "learning": 5675,
      "actually": 5676,
      "##rete": 5677,
      "layin": 5678,
      "##ledge": 5679,
      "leader": 5680,
      "motherfucking": 5681,
      "confusion": 5682,
      "##uesday": 5683,
      "symp": 5684,
      "freaky": 5685,
      "introdu": 5686,
      "distant": 5687,
      "whether": 5688,
      "bury": 5689,
      "Max": 5690,
      "frust": 5691,
      "rappin": 5692,
      "choir": 5693,
      "softly": 5694,
      "pounds": 5695,
      "stuntin": 5696,
      "milk": 5697,
      "greedy": 5698,
      "Georgia": 5699,
      "Forgive": 5700,
      "Cinderella": 5701,
      "unforgettable": 5702,
      "Imagine": 5703,
      "important": 5704,
      "Mix": 5705,
      "bored": 5706,
      "coo": 5707,
      "dip": 5708,
      "foo": 5709,
      "fence": 5710,
      "junk": 5711,
      "mor": 5712,
      "tar": 5713,
      "##lor": 5714,
      "##ton": 5715,
      "##uce": 5716,
      "##drop": 5717,
      "##-|[": 5718,
      "toss": 5719,
      "ink": 5720,
      "stam": 5721,
      "##ason": 5722,
      "sharp": 5723,
      "##omatic": 5724,
      "##ribe": 5725,
      "##icer": 5726,
      "##imp": 5727,
      "nigger": 5728,
      "swe": 5729,
      "scare": 5730,
      "finding": 5731,
      "concer": 5732,
      "talks": 5733,
      "preach": 5734,
      "bubb": 5735,
      "##izing": 5736,
      "kissin": 5737,
      "grin": 5738,
      "loneliness": 5739,
      "##cially": 5740,
      "seas": 5741,
      "planned": 5742,
      "Heard": 5743,
      "Afraid": 5744,
      "becomes": 5745,
      "terrified": 5746,
      "waters": 5747,
      "mixed": 5748,
      "incredible": 5749,
      "Fighting": 5750,
      "frozen": 5751,
      "Raise": 5752,
      "shells": 5753,
      "prepared": 5754,
      "faggot": 5755,
      "recognize": 5756,
      "insecure": 5757,
      "##adillac": 5758,
      "Tokyo": 5759,
      ").[": 5760,
      "40": 5761,
      "Funny": 5762,
      "Giving": 5763,
      "James": 5764,
      "Pet": 5765,
      "Sal": 5766,
      "hosp": 5767,
      "ox": 5768,
      "pract": 5769,
      "piano": 5770,
      "rack": 5771,
      "tend": 5772,
      "##vour": 5773,
      "##bby": 5774,
      "meat": 5775,
      "itself": 5776,
      "##oring": 5777,
      "##stic": 5778,
      "stumble": 5779,
      "##ense": 5780,
      "##aunt": 5781,
      "neon": 5782,
      "neither": 5783,
      "bling": 5784,
      "bliss": 5785,
      "whose": 5786,
      "##arded": 5787,
      "slam": 5788,
      "##ists": 5789,
      "Babylon": 5790,
      "smooth": 5791,
      "Doctor": 5792,
      "sunny": 5793,
      "nails": 5794,
      "bringin": 5795,
      "crashing": 5796,
      "##uzz": 5797,
      "desp": 5798,
      "##ortun": 5799,
      "Atl": 5800,
      "ballin": 5801,
      "appro": 5802,
      "##cover": 5803,
      "Runnin": 5804,
      "--[": 5805,
      "spending": 5806,
      "spotlight": 5807,
      "##hhhhhhhh": 5808,
      "Aye": 5809,
      "Except": 5810,
      "numbers": 5811,
      "miracles": 5812,
      "Knew": 5813,
      "##prints": 5814,
      "cowboy": 5815,
      "gypsy": 5816,
      "Bobby": 5817,
      "respons": 5818,
      "Searching": 5819,
      "Peace": 5820,
      "quarter": 5821,
      "version": 5822,
      "??": 5823,
      "Bust": 5824,
      "Bell": 5825,
      "Buck": 5826,
      "CHO": 5827,
      "Dest": 5828,
      "Danger": 5829,
      "Jealous": 5830,
      "Lee": 5831,
      "Makin": 5832,
      "Tup": 5833,
      "Treat": 5834,
      "Wear": 5835,
      "bold": 5836,
      "dea": 5837,
      "fi": 5838,
      "fits": 5839,
      "mass": 5840,
      "opt": 5841,
      "ton": 5842,
      "tone": 5843,
      "x3": 5844,
      "##action": 5845,
      "##pet": 5846,
      "##gy": 5847,
      "##RUS": 5848,
      "##:[": 5849,
      "##anana": 5850,
      "myster": 5851,
      "##sequ": 5852,
      "##leans": 5853,
      "##chin": 5854,
      "upst": 5855,
      "##urd": 5856,
      "gossip": 5857,
      "gots": 5858,
      "##ieber": 5859,
      "##antic": 5860,
      "singer": 5861,
      "dizzy": 5862,
      "##empt": 5863,
      "coaster": 5864,
      "perman": 5865,
      "##iffer": 5866,
      "##cience": 5867,
      "drops": 5868,
      "##gged": 5869,
      "recall": 5870,
      "Climb": 5871,
      "##eys": 5872,
      "appear": 5873,
      "lessons": 5874,
      "whiskey": 5875,
      "##ifteen": 5876,
      "collect": 5877,
      "idi": 5878,
      "testify": 5879,
      "direct": 5880,
      "proper": 5881,
      "juice": 5882,
      "toys": 5883,
      "express": 5884,
      "Acting": 5885,
      "possib": 5886,
      "##iliar": 5887,
      "symph": 5888,
      "stereo": 5889,
      "CHORUS": 5890,
      "45": 5891,
      "Ca": 5892,
      "HA": 5893,
      "Matter": 5894,
      "Rum": 5895,
      "aud": 5896,
      "beep": 5897,
      "hated": 5898,
      "pac": 5899,
      "rout": 5900,
      "tank": 5901,
      "##mar": 5902,
      "##miss": 5903,
      "##tes": 5904,
      "##rated": 5905,
      "##house": 5906,
      "##OW": 5907,
      "##inis": 5908,
      "##ern": 5909,
      "##isa": 5910,
      "reme": 5911,
      "sober": 5912,
      "##amik": 5913,
      "worn": 5914,
      "Change": 5915,
      "uns": 5916,
      "chew": 5917,
      "colder": 5918,
      "dances": 5919,
      "flowing": 5920,
      "Feelin": 5921,
      "Swag": 5922,
      "frontin": 5923,
      "hangin": 5924,
      "compet": 5925,
      "Twenty": 5926,
      "fully": 5927,
      "goddamn": 5928,
      "highest": 5929,
      "Gucci": 5930,
      "candles": 5931,
      "microp": 5932,
      "square": 5933,
      "hunger": 5934,
      "Lights": 5935,
      "consider": 5936,
      "cheese": 5937,
      "completely": 5938,
      "bathroom": 5939,
      "##steps": 5940,
      "Friends": 5941,
      "16": 5942,
      "Cre": 5943,
      "Dy": 5944,
      "Eve": 5945,
      "Far": 5946,
      "Fell": 5947,
      "Ron": 5948,
      "Roy": 5949,
      "Tired": 5950,
      "]`": 5951,
      "average": 5952,
      "cum": 5953,
      "creat": 5954,
      "gur": 5955,
      "##dest": 5956,
      "##rup": 5957,
      "##jor": 5958,
      "##'[": 5959,
      "##inger": 5960,
      "##anes": 5961,
      "whatcha": 5962,
      "##ictable": 5963,
      "chips": 5964,
      "blaz": 5965,
      "lazy": 5966,
      "safet": 5967,
      "swore": 5968,
      "##istic": 5969,
      "deceive": 5970,
      "pred": 5971,
      "sunrise": 5972,
      "Gettin": 5973,
      "##udden": 5974,
      "askin": 5975,
      "##ippy": 5976,
      "laughs": 5977,
      "jumped": 5978,
      "##ocol": 5979,
      "clearly": 5980,
      "suppose": 5981,
      "solid": 5982,
      "Perfect": 5983,
      "broad": 5984,
      "engine": 5985,
      "ashamed": 5986,
      "separate": 5987,
      "Battle": 5988,
      "11": 5989,
      "App": 5990,
      "Aah": 5991,
      "Bur": 5992,
      "Dist": 5993,
      "Hom": 5994,
      "Ind": 5995,
      "LA": 5996,
      "Men": 5997,
      "ai": 5998,
      "bay": 5999,
      "dim": 6000,
      "dang": 6001,
      "egg": 6002,
      "jelly": 6003,
      "mus": 6004,
      "material": 6005,
      "opin": 6006,
      "sigh": 6007,
      "vir": 6008,
      "witch": 6009,
      "€™": 6010,
      "##Game": 6011,
      "thee": 6012,
      "##nding": 6013,
      "thirst": 6014,
      "##eeee": 6015,
      "invol": 6016,
      "##sence": 6017,
      "beer": 6018,
      "##vern": 6019,
      "knee": 6020,
      "weigh": 6021,
      "iss": 6022,
      "##enn": 6023,
      "sof": 6024,
      "plead": 6025,
      "##umn": 6026,
      "spo": 6027,
      "##andy": 6028,
      "##anging": 6029,
      "##elve": 6030,
      "Nowhere": 6031,
      "Shad": 6032,
      "heading": 6033,
      "dreamer": 6034,
      "preacher": 6035,
      "LoveGame": 6036,
      "daily": 6037,
      "rainy": 6038,
      "raining": 6039,
      "beam": 6040,
      "trace": 6041,
      "hotter": 6042,
      "granted": 6043,
      "cruise": 6044,
      "sinner": 6045,
      "straw": 6046,
      "wildest": 6047,
      "diffic": 6048,
      "##ggy": 6049,
      "awhile": 6050,
      "weeks": 6051,
      "regular": 6052,
      "thanks": 6053,
      "Flip": 6054,
      "Talkin": 6055,
      "delicious": 6056,
      "misunder": 6057,
      "divine": 6058,
      "Driving": 6059,
      "Probably": 6060,
      "temptation": 6061,
      "intentions": 6062,
      "cocaine": 6063,
      "Biggie": 6064,
      "Cou": 6065,
      "Ferrari": 6066,
      "Mis": 6067,
      "Pe": 6068,
      "Rise": 6069,
      "jour": 6070,
      "##rate": 6071,
      "##EY": 6072,
      "##fire": 6073,
      "##flo": 6074,
      "##itney": 6075,
      "loss": 6076,
      "stash": 6077,
      "##lection": 6078,
      "wedding": 6079,
      "ended": 6080,
      "]()": 6081,
      "##odes": 6082,
      "##odies": 6083,
      "##ilin": 6084,
      "spite": 6085,
      "roar": 6086,
      "slipped": 6087,
      "##oline": 6088,
      "smash": 6089,
      "consequ": 6090,
      "Doin": 6091,
      "showing": 6092,
      "underw": 6093,
      "##osh": 6094,
      "moan": 6095,
      "prof": 6096,
      "##pecially": 6097,
      "Goin": 6098,
      "riot": 6099,
      "ribb": 6100,
      "helps": 6101,
      "Reg": 6102,
      "##mental": 6103,
      "##aaa": 6104,
      "acid": 6105,
      "##oooooo": 6106,
      "##iana": 6107,
      "heroes": 6108,
      "parking": 6109,
      "chillin": 6110,
      "interest": 6111,
      "--------": 6112,
      "pimpin": 6113,
      "stomp": 6114,
      "cheeks": 6115,
      "##respect": 6116,
      "Tex": 6117,
      "accident": 6118,
      "dyin": 6119,
      "film": 6120,
      "damage": 6121,
      "(?)[": 6122,
      "violent": 6123,
      "pearls": 6124,
      "criminal": 6125,
      "Yellow": 6126,
      "appreciate": 6127,
      "sunday": 6128,
      "hospital": 6129,
      "safety": 6130,
      ">[": 6131,
      "Ap": 6132,
      "Bitches": 6133,
      "Ce": 6134,
      "Met": 6135,
      "Sudden": 6136,
      "Vers": 6137,
      "cart": 6138,
      "fal": 6139,
      "rude": 6140,
      "—[": 6141,
      "##sing": 6142,
      "##olf": 6143,
      "##ville": 6144,
      "##ker": 6145,
      "##bers": 6146,
      "##ER": 6147,
      "##IG": 6148,
      "##arre": 6149,
      "##idge": 6150,
      "##ustry": 6151,
      "shin": 6152,
      "##uring": 6153,
      "##ening": 6154,
      "##ains": 6155,
      "worked": 6156,
      "washed": 6157,
      "chump": 6158,
      "plug": 6159,
      "backwards": 6160,
      "blank": 6161,
      "needing": 6162,
      "##akers": 6163,
      "looky": 6164,
      "wack": 6165,
      "##ured": 6166,
      "Theres": 6167,
      "finds": 6168,
      "crystal": 6169,
      "exper": 6170,
      "##ealing": 6171,
      "fired": 6172,
      "Nothin": 6173,
      "##udes": 6174,
      "meets": 6175,
      "pickin": 6176,
      "##oca": 6177,
      "kickin": 6178,
      "colour": 6179,
      "capture": 6180,
      "Ayo": 6181,
      "hustla": 6182,
      "Movement": 6183,
      "figured": 6184,
      "obvious": 6185,
      "divide": 6186,
      "Eye": 6187,
      "##itcase": 6188,
      "holler": 6189,
      "fields": 6190,
      "chosen": 6191,
      "Screaming": 6192,
      "travell": 6193,
      "surface": 6194,
      "sacrifice": 6195,
      "symphony": 6196,
      "remedy": 6197,
      "Bieber": 6198,
      "Dive": 6199,
      "Fred": 6200,
      "Rio": 6201,
      "Sil": 6202,
      "aching": 6203,
      "drove": 6204,
      "fifteen": 6205,
      "hus": 6206,
      "norm": 6207,
      "tch": 6208,
      "tap": 6209,
      "talked": 6210,
      "##nown": 6211,
      "##fit": 6212,
      "##fes": 6213,
      "##fast": 6214,
      "##quest": 6215,
      "##ini": 6216,
      "measure": 6217,
      "##ston": 6218,
      "##utation": 6219,
      "##asion": 6220,
      "knowin": 6221,
      "##cel": 6222,
      "goal": 6223,
      "##oph": 6224,
      "blink": 6225,
      "lab": 6226,
      "##road": 6227,
      "##imate": 6228,
      "##oking": 6229,
      "shed": 6230,
      "clique": 6231,
      "spr": 6232,
      "spaces": 6233,
      "##ando": 6234,
      "##ohoh": 6235,
      "fab": 6236,
      "##pless": 6237,
      "grill": 6238,
      "##quake": 6239,
      "Orleans": 6240,
      "Spread": 6241,
      "Slave": 6242,
      "accept": 6243,
      "prayers": 6244,
      "snatch": 6245,
      "Heavy": 6246,
      "demand": 6247,
      "lyin": 6248,
      "lawy": 6249,
      "stepping": 6250,
      "Dancin": 6251,
      "Flying": 6252,
      "Enough": 6253,
      "presents": 6254,
      "tables": 6255,
      "Learn": 6256,
      "fiend": 6257,
      "YEAH": 6258,
      "blonde": 6259,
      "fooled": 6260,
      "4x": 6261,
      "Care": 6262,
      "Cadillac": 6263,
      "Dum": 6264,
      "Fever": 6265,
      "Game": 6266,
      "Green": 6267,
      "Kind": 6268,
      "Lying": 6269,
      "Rob": 6270,
      "Tuesday": 6271,
      "cred": 6272,
      "drew": 6273,
      "led": 6274,
      "lull": 6275,
      "weep": 6276,
      "##aver": 6277,
      "##away": 6278,
      "##nn": 6279,
      "##cil": 6280,
      "##hole": 6281,
      "invent": 6282,
      "lim": 6283,
      "stat": 6284,
      "stink": 6285,
      "weird": 6286,
      "shr": 6287,
      "dove": 6288,
      "##oming": 6289,
      "##irds": 6290,
      "##ading": 6291,
      "noticed": 6292,
      "worries": 6293,
      "##ucker": 6294,
      "blur": 6295,
      "savi": 6296,
      "spine": 6297,
      "##andel": 6298,
      "favour": 6299,
      "##apse": 6300,
      "Stri": 6301,
      "handed": 6302,
      "hadn": 6303,
      "Somehow": 6304,
      "crap": 6305,
      "hopin": 6306,
      "danceflo": 6307,
      "glue": 6308,
      "globe": 6309,
      "carried": 6310,
      "understands": 6311,
      "popped": 6312,
      "childhood": 6313,
      "Brother": 6314,
      "aware": 6315,
      "laughin": 6316,
      "fuse": 6317,
      "decisions": 6318,
      "selling": 6319,
      "Aftermath": 6320,
      "frown": 6321,
      "colle": 6322,
      "Cont": 6323,
      "positive": 6324,
      "drums": 6325,
      "bulletproof": 6326,
      "conscience": 6327,
      "##fume": 6328,
      "##gedy": 6329,
      "harmony": 6330,
      "opportun": 6331,
      "spoken": 6332,
      "##finitely": 6333,
      "Bonnie": 6334,
      "degree": 6335,
      "##alentine": 6336,
      "culture": 6337,
      "typical": 6338,
      "##senger": 6339,
      "sympathy": 6340,
      "difficult": 6341,
      "Suddenly": 6342,
      "*}[": 6343,
      "99": 6344,
      "Bump": 6345,
      "Dah": 6346,
      "Eight": 6347,
      "Easy": 6348,
      "Found": 6349,
      "Ju": 6350,
      "Mir": 6351,
      "Rest": 6352,
      "Year": 6353,
      "bop": 6354,
      "fri": 6355,
      "sau": 6356,
      "sus": 6357,
      "umb": 6358,
      "{*": 6359,
      "##lve": 6360,
      "##lines": 6361,
      "##ys": 6362,
      "##dog": 6363,
      "##pose": 6364,
      "##gas": 6365,
      "##ators": 6366,
      "##itions": 6367,
      "inner": 6368,
      "##aries": 6369,
      "steam": 6370,
      "haze": 6371,
      "##amin": 6372,
      "cling": 6373,
      "clack": 6374,
      "##andal": 6375,
      "keepin": 6376,
      "overd": 6377,
      "comfor": 6378,
      "deck": 6379,
      "contin": 6380,
      "##ational": 6381,
      "Comes": 6382,
      "pres": 6383,
      "suitcase": 6384,
      "buying": 6385,
      "fights": 6386,
      "fighter": 6387,
      "host": 6388,
      "##izard": 6389,
      "##izarre": 6390,
      "disaster": 6391,
      "drip": 6392,
      "sets": 6393,
      "heavens": 6394,
      "dada": 6395,
      "shootin": 6396,
      "halfway": 6397,
      "Runway": 6398,
      "Death": 6399,
      "support": 6400,
      "hatin": 6401,
      "##ombie": 6402,
      "##bbin": 6403,
      "murdered": 6404,
      "squad": 6405,
      "sandstorm": 6406,
      "smells": 6407,
      "reflection": 6408,
      "industry": 6409,
      "champions": 6410,
      "butterfly": 6411,
      "ooooh": 6412,
      "Happiness": 6413,
      "remains": 6414,
      "glowing": 6415,
      "psycho": 6416,
      "connection": 6417,
      "]{*": 6418,
      "magazines": 6419,
      "Papa": 6420,
      "sirens": 6421,
      "trailer": 6422,
      "deaf": 6423,
      "microphone": 6424,
      "husband": 6425,
      "dancefloor": 6426,
      "21": 6427,
      "BE": 6428,
      "Cam": 6429,
      "Nas": 6430,
      "Read": 6431,
      "Rose": 6432,
      "Tv": 6433,
      "Tay": 6434,
      "Upt": 6435,
      "erase": 6436,
      "od": 6437,
      "puff": 6438,
      "pale": 6439,
      "sway": 6440,
      "van": 6441,
      "yall": 6442,
      "##ec": 6443,
      "##sand": 6444,
      "##while": 6445,
      "##-|": 6446,
      "##eras": 6447,
      "tot": 6448,
      "belly": 6449,
      "stock": 6450,
      "shattered": 6451,
      "upt": 6452,
      "upset": 6453,
      "##irts": 6454,
      "##iger": 6455,
      "alien": 6456,
      "chocol": 6457,
      "bloom": 6458,
      "blunt": 6459,
      "##using": 6460,
      "role": 6461,
      "slippin": 6462,
      "##ires": 6463,
      "themselves": 6464,
      "players": 6465,
      "Best": 6466,
      "skip": 6467,
      "##arks": 6468,
      "##ealth": 6469,
      "dial": 6470,
      "trapped": 6471,
      "prog": 6472,
      "pockets": 6473,
      "wonderin": 6474,
      "##ltra": 6475,
      "Swear": 6476,
      "eatin": 6477,
      "peaches": 6478,
      "speaking": 6479,
      "prize": 6480,
      "sexual": 6481,
      "mommy": 6482,
      "decided": 6483,
      "Quick": 6484,
      "reputation": 6485,
      "##ugged": 6486,
      "cocks": 6487,
      "wished": 6488,
      "wisdom": 6489,
      "Conf": 6490,
      "disgust": 6491,
      "Drive": 6492,
      "crawling": 6493,
      "stolen": 6494,
      "suffer": 6495,
      "Tearing": 6496,
      "Faith": 6497,
      "unknown": 6498,
      "guarantee": 6499,
      "permanent": 6500,
      "Cur": 6501,
      "Dem": 6502,
      "Jer": 6503,
      "Kar": 6504,
      "Rick": 6505,
      "Riding": 6506,
      "Sep": 6507,
      "Tears": 6508,
      "Water": 6509,
      "ble": 6510,
      "bore": 6511,
      "mr": 6512,
      "muse": 6513,
      "sew": 6514,
      "##lie": 6515,
      "##oice": 6516,
      "##vage": 6517,
      "##ral": 6518,
      "##pty": 6519,
      "##port": 6520,
      "##just": 6521,
      "tooth": 6522,
      "thorn": 6523,
      "thread": 6524,
      "##met": 6525,
      "loyal": 6526,
      "##esome": 6527,
      "stair": 6528,
      "##lem": 6529,
      "whips": 6530,
      "##ashes": 6531,
      "##race": 6532,
      "##alley": 6533,
      "rocked": 6534,
      "flu": 6535,
      "swell": 6536,
      "career": 6537,
      "stray": 6538,
      "breakfast": 6539,
      "lasts": 6540,
      "unwind": 6541,
      "tries": 6542,
      "warrior": 6543,
      "##sessed": 6544,
      "gunna": 6545,
      "##appin": 6546,
      "Att": 6547,
      "mister": 6548,
      "colours": 6549,
      "Lovin": 6550,
      "sending": 6551,
      "facts": 6552,
      "quicksand": 6553,
      "reply": 6554,
      "##ology": 6555,
      "purpose": 6556,
      "satisfaction": 6557,
      "classic": 6558,
      "##rumental": 6559,
      "fantas": 6560,
      "Cover": 6561,
      "digging": 6562,
      "focused": 6563,
      "Hurt": 6564,
      "powder": 6565,
      "concrete": 6566,
      "chapel": 6567,
      "##levard": 6568,
      "eventually": 6569,
      "Texas": 6570,
      "uptight": 6571,
      "-,": 6572,
      "3x": 6573,
      "AR": 6574,
      "Bout": 6575,
      "Fox": 6576,
      "Lie": 6577,
      "Oo": 6578,
      "Pink": 6579,
      "Use": 6580,
      "Vict": 6581,
      "bush": 6582,
      "cous": 6583,
      "dun": 6584,
      "ella": 6585,
      "gather": 6586,
      "hu": 6587,
      "hunt": 6588,
      "nur": 6589,
      "phen": 6590,
      "poker": 6591,
      "sir": 6592,
      "##pes": 6593,
      "##bar": 6594,
      "##rella": 6595,
      "##esse": 6596,
      "##chu": 6597,
      "shiny": 6598,
      "shaped": 6599,
      "ups": 6600,
      "Whip": 6601,
      "sack": 6602,
      "shelf": 6603,
      "commit": 6604,
      "##asted": 6605,
      "stoppin": 6606,
      "skills": 6607,
      "seats": 6608,
      "twelve": 6609,
      "shower": 6610,
      "mob": 6611,
      "##chet": 6612,
      "Looks": 6613,
      "grade": 6614,
      "farm": 6615,
      "perfume": 6616,
      "smiled": 6617,
      "phunk": 6618,
      "Keeps": 6619,
      "setting": 6620,
      "magnet": 6621,
      "##mmm": 6622,
      "Johnny": 6623,
      "parade": 6624,
      "kingdom": 6625,
      "Drunk": 6626,
      "thrown": 6627,
      "motor": 6628,
      "pushing": 6629,
      "visit": 6630,
      "horiz": 6631,
      "disappeared": 6632,
      "mental": 6633,
      "bridges": 6634,
      "sparks": 6635,
      "depart": 6636,
      "Coz": 6637,
      "dynamite": 6638,
      "command": 6639,
      "condition": 6640,
      "gentleman": 6641,
      "Superman": 6642,
      "Angels": 6643,
      "racing": 6644,
      "wander": 6645,
      "temperature": 6646,
      "slept": 6647,
      "##oppable": 6648,
      "haunting": 6649,
      "Romeo": 6650,
      "Beyoncé": 6651,
      "describe": 6652,
      "stamina": 6653,
      "Dangerous": 6654,
      "umbrella": 6655,
      "('": 6656,
      "30": 6657,
      "?!": 6658,
      "Bentle": 6659,
      "Bounce": 6660,
      "Corn": 6661,
      "Coke": 6662,
      "Dirt": 6663,
      "Foc": 6664,
      "Holl": 6665,
      "Lisa": 6666,
      "Mister": 6667,
      "Mathers": 6668,
      "Nick": 6669,
      "Park": 6670,
      "Town": 6671,
      "avenue": 6672,
      "fog": 6673,
      "gates": 6674,
      "net": 6675,
      "pra": 6676,
      "ric": 6677,
      "scent": 6678,
      "ti": 6679,
      "vill": 6680,
      "##mi": 6681,
      "##ai": 6682,
      "##aby": 6683,
      "##yard": 6684,
      "##dly": 6685,
      "##bage": 6686,
      "##ware": 6687,
      "##SS": 6688,
      "##NIT": 6689,
      "##AR": 6690,
      "##ão": 6691,
      "##hell": 6692,
      "##stone": 6693,
      "lion": 6694,
      "static": 6695,
      "bast": 6696,
      "##aints": 6697,
      "Whose": 6698,
      "makeup": 6699,
      "backs": 6700,
      "roam": 6701,
      "orange": 6702,
      "Shining": 6703,
      "script": 6704,
      "lemon": 6705,
      "twerk": 6706,
      "max": 6707,
      "arrow": 6708,
      "sidewalk": 6709,
      "fightin": 6710,
      "flyin": 6711,
      "winds": 6712,
      "Says": 6713,
      "warn": 6714,
      "sleepin": 6715,
      "##aughters": 6716,
      "helped": 6717,
      "guessing": 6718,
      "magik": 6719,
      "Clos": 6720,
      "awesome": 6721,
      "Anymore": 6722,
      "##coaster": 6723,
      "curves": 6724,
      "familiar": 6725,
      "attract": 6726,
      "hatnin": 6727,
      "Leaving": 6728,
      "Intro": 6729,
      "books": 6730,
      "grief": 6731,
      "Proof": 6732,
      "scratched": 6733,
      "whispering": 6734,
      "Starlight": 6735,
      "create": 6736,
      "filthy": 6737,
      "Gangster": 6738,
      "source": 6739,
      "violence": 6740,
      "gloves": 6741,
      "paranoid": 6742,
      "behave": 6743,
      "##vernment": 6744,
      "favourite": 6745,
      "president": 6746,
      "Bless": 6747,
      "Cor": 6748,
      "End": 6749,
      "Eon": 6750,
      "Gary": 6751,
      "Kat": 6752,
      "Lem": 6753,
      "Os": 6754,
      "Pri": 6755,
      "WH": 6756,
      "Word": 6757,
      "Yok": 6758,
      "aer": 6759,
      "duh": 6760,
      "hating": 6761,
      "pan": 6762,
      "rims": 6763,
      "##mble": 6764,
      "##ems": 6765,
      "##ivin": 6766,
      "##uction": 6767,
      "##da": 6768,
      "##vid": 6769,
      "##bing": 6770,
      "##rena": 6771,
      "##rect": 6772,
      "##iti": 6773,
      "##stit": 6774,
      "##stoppable": 6775,
      "##ights": 6776,
      "reign": 6777,
      "whoo": 6778,
      "##ompl": 6779,
      "##ellite": 6780,
      "alike": 6781,
      "hears": 6782,
      "heartache": 6783,
      "##ended": 6784,
      "##ifts": 6785,
      "bride": 6786,
      "diddly": 6787,
      "longing": 6788,
      "puts": 6789,
      "scra": 6790,
      "painting": 6791,
      "disrespect": 6792,
      "mothers": 6793,
      "perform": 6794,
      "sweetheart": 6795,
      "pops": 6796,
      "Spanish": 6797,
      "airpl": 6798,
      "surely": 6799,
      "##redictable": 6800,
      "clubs": 6801,
      "throwin": 6802,
      "skinny": 6803,
      "straighten": 6804,
      "belongs": 6805,
      "Scr": 6806,
      "copy": 6807,
      "Seven": 6808,
      "destination": 6809,
      "healing": 6810,
      "100": 6811,
      "footsteps": 6812,
      "Eyed": 6813,
      "jealousy": 6814,
      "solve": 6815,
      "easily": 6816,
      "rumour": 6817,
      "(?)": 6818,
      "haunted": 6819,
      "surrounded": 6820,
      "image": 6821,
      "battles": 6822,
      "Whisper": 6823,
      "oxy": 6824,
      "Atlanta": 6825,
      "approach": 6826,
      "Versace": 6827,
      "!\"": 6828,
      "13": 6829,
      "Ak": 6830,
      "Bee": 6831,
      "Bright": 6832,
      "Eat": 6833,
      "House": 6834,
      "Hippy": 6835,
      "July": 6836,
      "Late": 6837,
      "Nat": 6838,
      "Rod": 6839,
      "Ty": 6840,
      "Tun": 6841,
      "Val": 6842,
      "daughters": 6843,
      "eter": 6844,
      "faking": 6845,
      "john": 6846,
      "ni": 6847,
      "nar": 6848,
      "oa": 6849,
      "rad": 6850,
      "sons": 6851,
      "tips": 6852,
      "##aur": 6853,
      "##iah": 6854,
      "##ye": 6855,
      "##dad": 6856,
      "##pa": 6857,
      "##pie": 6858,
      "##ca": 6859,
      "##cock": 6860,
      "##gers": 6861,
      "##erman": 6862,
      "##onic": 6863,
      "ben": 6864,
      "##arge": 6865,
      "reload": 6866,
      "##asing": 6867,
      "shift": 6868,
      "domin": 6869,
      "Their": 6870,
      "seeds": 6871,
      "##------": 6872,
      "plot": 6873,
      "##apha": 6874,
      "State": 6875,
      "Stars": 6876,
      "among": 6877,
      "amount": 6878,
      "smoked": 6879,
      "envy": 6880,
      "twin": 6881,
      "major": 6882,
      "movement": 6883,
      "##nect": 6884,
      "##pens": 6885,
      "##empl": 6886,
      "cru": 6887,
      "crumb": 6888,
      "finna": 6889,
      "prayin": 6890,
      "magn": 6891,
      "Anyway": 6892,
      "blinded": 6893,
      "bari": 6894,
      "rivers": 6895,
      "sniff": 6896,
      "motiv": 6897,
      "decision": 6898,
      "Smack": 6899,
      "faithful": 6900,
      "tension": 6901,
      "Mrs": 6902,
      "whispers": 6903,
      "health": 6904,
      "Exc": 6905,
      "weakness": 6906,
      "Write": 6907,
      "surprised": 6908,
      "Straw": 6909,
      "depend": 6910,
      "Mustapha": 6911,
      "created": 6912,
      "formation": 6913,
      "ticking": 6914,
      "gentlemen": 6915,
      "Sexy": 6916,
      "vacation": 6917,
      "possible": 6918,
      "heartbreaker": 6919,
      "Teach": 6920,
      "Memories": 6921,
      "Midnight": 6922,
      "studio": 6923,
      "##-----------------------------[": 6924,
      "physical": 6925,
      "product": 6926,
      "neighborhood": 6927,
      "mysterious": 6928,
      "competition": 6929,
      "Homie": 6930,
      "Uptown": 6931,
      "Yoko": 6932,
      "##renaline": 6933,
      "'.[": 6934,
      "90": 6935,
      ":----------------------------------------------------------------": 6936,
      "Front": 6937,
      "Hill": 6938,
      "Jama": 6939,
      "June": 6940,
      "Jagger": 6941,
      "Lu": 6942,
      "OK": 6943,
      "Rhy": 6944,
      "Trou": 6945,
      "Wow": 6946,
      "cough": 6947,
      "ded": 6948,
      "due": 6949,
      "gee": 6950,
      "hittin": 6951,
      "kitty": 6952,
      "mu": 6953,
      "mack": 6954,
      "nu": 6955,
      "oz": 6956,
      "sisters": 6957,
      "ties": 6958,
      "tub": 6959,
      "##tt": 6960,
      "##uary": 6961,
      "##view": 6962,
      "##bell": 6963,
      "##UT": 6964,
      "##12": 6965,
      "##oned": 6966,
      "##ingle": 6967,
      "meal": 6968,
      "##orms": 6969,
      "infinite": 6970,
      "repe": 6971,
      "knives": 6972,
      "shave": 6973,
      "doe": 6974,
      "llama": 6975,
      "plant": 6976,
      "backst": 6977,
      "##imin": 6978,
      "Justin": 6979,
      "breast": 6980,
      "bites": 6981,
      "Doe": 6982,
      "baddest": 6983,
      "glam": 6984,
      "glasses": 6985,
      "warned": 6986,
      "grabbed": 6987,
      "popular": 6988,
      "changin": 6989,
      "messing": 6990,
      "awful": 6991,
      "signed": 6992,
      "Goodnight": 6993,
      "explore": 6994,
      "Times": 6995,
      "quickly": 6996,
      "cloudy": 6997,
      "Maria": 6998,
      "laws": 6999,
      "##chers": 7000,
      "Heartbreak": 7001,
      "Snoop": 7002,
      "defeat": 7003,
      "strikes": 7004,
      "Barb": 7005,
      "-------------------------------------------------": 7006,
      "England": 7007,
      "unfold": 7008,
      "patiently": 7009,
      "##ursday": 7010,
      "Billie": 7011,
      "extremo": 7012,
      "ladder": 7013,
      "Thriller": 7014,
      "target": 7015,
      "Tupac": 7016,
      "involved": 7017,
      "misunderstood": 7018,
      "journey": 7019,
      "Bentley": 7020,
      "???": 7021,
      "Fil": 7022,
      "Fresh": 7023,
      "Kelly": 7024,
      "NY": 7025,
      "Nice": 7026,
      "Nina": 7027,
      "Rapp": 7028,
      "Song": 7029,
      "Test": 7030,
      "UNIT": 7031,
      "Warm": 7032,
      "bark": 7033,
      "code": 7034,
      "et": 7035,
      "era": 7036,
      "flew": 7037,
      "gently": 7038,
      "lamb": 7039,
      "panic": 7040,
      "ray": 7041,
      "sort": 7042,
      "tiger": 7043,
      "wars": 7044,
      "wooh": 7045,
      "##oes": 7046,
      "##don": 7047,
      "##bl": 7048,
      "##gon": 7049,
      "##OP": 7050,
      "##ont": 7051,
      "tore": 7052,
      "thigh": 7053,
      "##othe": 7054,
      "##utch": 7055,
      "##arazz": 7056,
      "shown": 7057,
      "##oms": 7058,
      "##nace": 7059,
      "##nade": 7060,
      "##rie": 7061,
      "##alt": 7062,
      "##allen": 7063,
      "##oft": 7064,
      "##icial": 7065,
      "##iculous": 7066,
      "reached": 7067,
      "realest": 7068,
      "lettin": 7069,
      "lace": 7070,
      "clips": 7071,
      "spittin": 7072,
      "flashing": 7073,
      "defin": 7074,
      "##ooks": 7075,
      "skill": 7076,
      "Chris": 7077,
      "sevent": 7078,
      "understood": 7079,
      "arrest": 7080,
      "hott": 7081,
      "funeral": 7082,
      "imm": 7083,
      "rounds": 7084,
      "adm": 7085,
      "popping": 7086,
      "##cient": 7087,
      "##plex": 7088,
      "droppin": 7089,
      "Mean": 7090,
      "pullin": 7091,
      "finest": 7092,
      "rape": 7093,
      "drawn": 7094,
      "picking": 7095,
      "Anytime": 7096,
      "curb": 7097,
      "reading": 7098,
      "mirrors": 7099,
      "##antastic": 7100,
      "Flash": 7101,
      "fruit": 7102,
      "suggest": 7103,
      "crowded": 7104,
      "Grand": 7105,
      "jokes": 7106,
      "cameras": 7107,
      "Moving": 7108,
      "basement": 7109,
      "freezer": 7110,
      "convince": 7111,
      "Laughing": 7112,
      "elevator": 7113,
      "pilot": 7114,
      "idiot": 7115,
      "lullaby": 7116,
      "oxygen": 7117,
      "##arazzi": 7118,
      "'?": 7119,
      ",\"": 7120,
      "14": 7121,
      "AK": 7122,
      "Ber": 7123,
      "Bud": 7124,
      "Bigger": 7125,
      "CD": 7126,
      "Cook": 7127,
      "Heal": 7128,
      "Lose": 7129,
      "Mart": 7130,
      "Mile": 7131,
      "Ooooo": 7132,
      "Wave": 7133,
      "Yah": 7134,
      "]“": 7135,
      "ast": 7136,
      "dudes": 7137,
      "mast": 7138,
      "pause": 7139,
      "rang": 7140,
      "sam": 7141,
      "sipping": 7142,
      "saint": 7143,
      "valley": 7144,
      "zombie": 7145,
      "##made": 7146,
      "##tra": 7147,
      "##nter": 7148,
      "##uition": 7149,
      "##ba": 7150,
      "##CH": 7151,
      "##UCK": 7152,
      "##oured": 7153,
      "##iter": 7154,
      "##kes": 7155,
      "##oria": 7156,
      "##ste": 7157,
      "##seat": 7158,
      "lolly": 7159,
      "reve": 7160,
      "upgr": 7161,
      "##opath": 7162,
      "##ths": 7163,
      "ching": 7164,
      "Solo": 7165,
      "sheep": 7166,
      "##ardi": 7167,
      "##-----------": 7168,
      "Allah": 7169,
      "betray": 7170,
      "##anged": 7171,
      "slick": 7172,
      "##lfill": 7173,
      "fucks": 7174,
      "brush": 7175,
      "##ulation": 7176,
      "shits": 7177,
      "##asting": 7178,
      "dece": 7179,
      "waits": 7180,
      "##bert": 7181,
      "lev": 7182,
      "moi": 7183,
      "partic": 7184,
      "highs": 7185,
      "tripping": 7186,
      "tragic": 7187,
      "cheer": 7188,
      "hasn": 7189,
      "crumble": 7190,
      "deepest": 7191,
      "##pton": 7192,
      "##iolence": 7193,
      "screams": 7194,
      "followed": 7195,
      "perfection": 7196,
      "finesse": 7197,
      "Click": 7198,
      "messin": 7199,
      "appeal": 7200,
      "Anywhere": 7201,
      "clearer": 7202,
      "Showed": 7203,
      "barrel": 7204,
      "Afric": 7205,
      "hooked": 7206,
      "##cedes": 7207,
      "media": 7208,
      "champion": 7209,
      "gasoline": 7210,
      "reminds": 7211,
      "teenage": 7212,
      "##ruction": 7213,
      "salt": 7214,
      "Beauty": 7215,
      "Strong": 7216,
      "emotional": 7217,
      "tunes": 7218,
      "techn": 7219,
      "Charlie": 7220,
      "rabbit": 7221,
      "introduce": 7222,
      "Ronnie": 7223,
      "Taylor": 7224,
      "Focus": 7225,
      "Trouble": 7226,
      "80": 7227,
      "Dave": 7228,
      "Duro": 7229,
      "Fat": 7230,
      "Lead": 7231,
      "Pu": 7232,
      "Post": 7233,
      "Pres": 7234,
      "Sir": 7235,
      "Sile": 7236,
      "Sittin": 7237,
      "Skin": 7238,
      "Ye": 7239,
      "cuff": 7240,
      "eag": 7241,
      "gin": 7242,
      "ggas": 7243,
      "lame": 7244,
      "mah": 7245,
      "nash": 7246,
      "pant": 7247,
      "pity": 7248,
      "pipe": 7249,
      "ticke": 7250,
      "uhh": 7251,
      "##mers": 7252,
      "##uct": 7253,
      "##rod": 7254,
      "##cury": 7255,
      "toil": 7256,
      "##etite": 7257,
      "whack": 7258,
      "##chy": 7259,
      "##iration": 7260,
      "##nap": 7261,
      "velve": 7262,
      "react": 7263,
      "robbed": 7264,
      "##elo": 7265,
      "bruise": 7266,
      "leaf": 7267,
      "##ista": 7268,
      "homes": 7269,
      "##olves": 7270,
      "conta": 7271,
      "conquer": 7272,
      "skull": 7273,
      "semi": 7274,
      "carefully": 7275,
      "handsome": 7276,
      "grease": 7277,
      "Telling": 7278,
      "rolls": 7279,
      "##uger": 7280,
      "carpet": 7281,
      "##ships": 7282,
      "grams": 7283,
      "Aint": 7284,
      "##aws": 7285,
      "##...[": 7286,
      "shooter": 7287,
      "leading": 7288,
      "##ilyn": 7289,
      "apartment": 7290,
      "Haven": 7291,
      "troubled": 7292,
      "powerful": 7293,
      "hates": 7294,
      "senses": 7295,
      "thrills": 7296,
      "sucks": 7297,
      "##bbing": 7298,
      "Understand": 7299,
      "##iki": 7300,
      "bumpin": 7301,
      "Exp": 7302,
      "passenger": 7303,
      "possess": 7304,
      "personal": 7305,
      "chaos": 7306,
      "200": 7307,
      "solution": 7308,
      "local": 7309,
      "Buy": 7310,
      "Started": 7311,
      "modern": 7312,
      "commun": 7313,
      "nightmares": 7314,
      "Funky": 7315,
      "arrive": 7316,
      "##adadadad": 7317,
      "debt": 7318,
      "desperate": 7319,
      "critic": 7320,
      "Second": 7321,
      "service": 7322,
      "bubbles": 7323,
      "Peter": 7324,
      "ribbons": 7325,
      "false": 7326,
      "normal": 7327,
      "##fesaver": 7328,
      "opportunity": 7329,
      "odds": 7330,
      "chocolate": 7331,
      ":---------------------------------------------------------------------------------------------[": 7332,
      "Add": 7333,
      "Cher": 7334,
      "Fe": 7335,
      "Fam": 7336,
      "Hy": 7337,
      "Honest": 7338,
      "Jap": 7339,
      "Mot": 7340,
      "Pin": 7341,
      "Press": 7342,
      "Snow": 7343,
      "aight": 7344,
      "bon": 7345,
      "cu": 7346,
      "dot": 7347,
      "gifts": 7348,
      "jerk": 7349,
      "lin": 7350,
      "porn": 7351,
      "tv": 7352,
      "##mind": 7353,
      "##lane": 7354,
      "##ias": 7355,
      "##range": 7356,
      "##AM": 7357,
      "##atches": 7358,
      "##reg": 7359,
      "##reck": 7360,
      "##rent": 7361,
      "tossed": 7362,
      "##itched": 7363,
      "stall": 7364,
      "rever": 7365,
      "gotten": 7366,
      "##inds": 7367,
      "seein": 7368,
      "##hern": 7369,
      "ancient": 7370,
      "##icia": 7371,
      "chuck": 7372,
      "challen": 7373,
      "Whoo": 7374,
      "##inks": 7375,
      "##ila": 7376,
      "savage": 7377,
      "##igga": 7378,
      "##ardon": 7379,
      "emerg": 7380,
      "sever": 7381,
      "##aches": 7382,
      "presence": 7383,
      "##ondition": 7384,
      "guard": 7385,
      "partner": 7386,
      "##place": 7387,
      "triple": 7388,
      "tragedy": 7389,
      "forest": 7390,
      "wishin": 7391,
      "dripping": 7392,
      "elastic": 7393,
      "##icted": 7394,
      "Goes": 7395,
      "Alicia": 7396,
      "Seeing": 7397,
      "kidding": 7398,
      "deadly": 7399,
      "catching": 7400,
      "drain": 7401,
      "Turning": 7402,
      "##rewell": 7403,
      "fellas": 7404,
      "wearin": 7405,
      "planes": 7406,
      "knockin": 7407,
      "supply": 7408,
      "##ibal": 7409,
      "ruined": 7410,
      "talent": 7411,
      "##antage": 7412,
      "sights": 7413,
      "friday": 7414,
      "stealing": 7415,
      "escap": 7416,
      "attached": 7417,
      "Crack": 7418,
      "swinging": 7419,
      "Art": 7420,
      "Days": 7421,
      "bowl": 7422,
      "automatic": 7423,
      "discuss": 7424,
      "Hanging": 7425,
      "##uuuuuuuu": 7426,
      "puppet": 7427,
      "basket": 7428,
      "compares": 7429,
      "honor": 7430,
      "jewelry": 7431,
      "whistle": 7432,
      "Police": 7433,
      "##mission": 7434,
      "Karma": 7435,
      "horizon": 7436,
      "velvet": 7437,
      "\")[": 7438,
      "63": 7439,
      "Dee": 7440,
      "Differ": 7441,
      "Fast": 7442,
      "HO": 7443,
      "Hip": 7444,
      "Kids": 7445,
      "Ow": 7446,
      "Sch": 7447,
      "Seen": 7448,
      "dro": 7449,
      "ep": 7450,
      "gown": 7451,
      "ir": 7452,
      "icy": 7453,
      "mug": 7454,
      "ner": 7455,
      "noo": 7456,
      "pony": 7457,
      "saints": 7458,
      "wolves": 7459,
      "##uses": 7460,
      "##core": 7461,
      "##col": 7462,
      "##cony": 7463,
      "##wa": 7464,
      "##face": 7465,
      "##ndo": 7466,
      "mend": 7467,
      "##itating": 7468,
      "##isin": 7469,
      "stroke": 7470,
      "shared": 7471,
      "alley": 7472,
      "dogg": 7473,
      "justice": 7474,
      "##igan": 7475,
      "although": 7476,
      "backseat": 7477,
      "blaze": 7478,
      "##umin": 7479,
      "##okin": 7480,
      "mansion": 7481,
      "slipping": 7482,
      "complex": 7483,
      "fuckers": 7484,
      "amer": 7485,
      "homey": 7486,
      "##olute": 7487,
      "Champ": 7488,
      "mail": 7489,
      "prob": 7490,
      "sleeps": 7491,
      "treated": 7492,
      "listenin": 7493,
      "lows": 7494,
      "Mex": 7495,
      "pulls": 7496,
      "peas": 7497,
      "peacock": 7498,
      "Turned": 7499,
      "tastes": 7500,
      "ridiculous": 7501,
      "checkin": 7502,
      "teardrop": 7503,
      "magical": 7504,
      "gangster": 7505,
      "illest": 7506,
      "neckl": 7507,
      "disappoint": 7508,
      "wishes": 7509,
      "halls": 7510,
      "melodies": 7511,
      "Hotel": 7512,
      "Lightning": 7513,
      "spirits": 7514,
      "123": 7515,
      "!!!)[": 7516,
      "salvation": 7517,
      "Monster": 7518,
      "Relax": 7519,
      "flags": 7520,
      "Point": 7521,
      "protection": 7522,
      "oughta": 7523,
      "##nesday": 7524,
      "naturally": 7525,
      "Against": 7526,
      "clowns": 7527,
      "hidden": 7528,
      "##otton": 7529,
      "Miami": 7530,
      "##================": 7531,
      "siren": 7532,
      "helpless": 7533,
      "relationship": 7534,
      "projects": 7535,
      "Double": 7536,
      "virgin": 7537,
      "thirsty": 7538,
      "praise": 7539,
      "aerop": 7540,
      "emergency": 7541,
      ".,": 7542,
      "Air": 7543,
      "Bay": 7544,
      "Coll": 7545,
      "Cash": 7546,
      "Evil": 7547,
      "Hu": 7548,
      "IT": 7549,
      "Mum": 7550,
      "Ment": 7551,
      "Much": 7552,
      "Mars": 7553,
      "MAN": 7554,
      "Ret": 7555,
      "Ridin": 7556,
      "Sam": 7557,
      "Side": 7558,
      "Wed": 7559,
      "Wreck": 7560,
      "ache": 7561,
      "batter": 7562,
      "fart": 7563,
      "goo": 7564,
      "kin": 7565,
      "mal": 7566,
      "mult": 7567,
      "tan": 7568,
      "teen": 7569,
      "tiss": 7570,
      "vamp": 7571,
      "wing": 7572,
      "##lers": 7573,
      "##ij": 7574,
      "##je": 7575,
      "##eem": 7576,
      "infin": 7577,
      "beds": 7578,
      "lobby": 7579,
      "##isc": 7580,
      "##eddy": 7581,
      "sha": 7582,
      "upper": 7583,
      "##ali": 7584,
      "oho": 7585,
      "##icle": 7586,
      "downs": 7587,
      "china": 7588,
      "##outhern": 7589,
      "##geous": 7590,
      "clair": 7591,
      "##ession": 7592,
      "rights": 7593,
      "farewell": 7594,
      "wax": 7595,
      "Steady": 7596,
      "runway": 7597,
      "##olation": 7598,
      "playa": 7599,
      "dreamers": 7600,
      "cracked": 7601,
      "Doll": 7602,
      "prefer": 7603,
      "exit": 7604,
      "buh": 7605,
      "proc": 7606,
      "poin": 7607,
      "cocked": 7608,
      "percent": 7609,
      "Along": 7610,
      "##ronic": 7611,
      "understanding": 7612,
      "##ression": 7613,
      "drinkin": 7614,
      "prime": 7615,
      "relate": 7616,
      "ayo": 7617,
      "explos": 7618,
      "attic": 7619,
      "educ": 7620,
      "Scared": 7621,
      "bangin": 7622,
      "bands": 7623,
      "forgiven": 7624,
      "delight": 7625,
      "pours": 7626,
      "melting": 7627,
      "button": 7628,
      "submar": 7629,
      "Wayne": 7630,
      "dragon": 7631,
      "chasin": 7632,
      "television": 7633,
      "Slowly": 7634,
      "century": 7635,
      "failure": 7636,
      "autumn": 7637,
      "anthem": 7638,
      "George": 7639,
      "THE": 7640,
      "horny": 7641,
      "groupie": 7642,
      "karma": 7643,
      "balcony": 7644,
      "allowed": 7645,
      "route": 7646,
      "thighs": 7647,
      "particular": 7648,
      "aeroplane": 7649,
      "!}[": 7650,
      "):[": 7651,
      "57": 7652,
      "Ai": 7653,
      "A5": 7654,
      "Ang": 7655,
      "Ball": 7656,
      "Dj": 7657,
      "Dead": 7658,
      "Digg": 7659,
      "Er": 7660,
      "Fo": 7661,
      "Fed": 7662,
      "Hat": 7663,
      "Ham": 7664,
      "Hig": 7665,
      "Hair": 7666,
      "Ly": 7667,
      "Morn": 7668,
      "Puff": 7669,
      "San": 7670,
      "Sea": 7671,
      "Sour": 7672,
      "Valentine": 7673,
      "Women": 7674,
      "XO": 7675,
      "cus": 7676,
      "deed": 7677,
      "fuss": 7678,
      "jus": 7679,
      "lake": 7680,
      "lump": 7681,
      "lunch": 7682,
      "nerve": 7683,
      "north": 7684,
      "port": 7685,
      "reel": 7686,
      "rode": 7687,
      "tag": 7688,
      "uuh": 7689,
      "ye": 7690,
      "##mma": 7691,
      "##ded": 7692,
      "##die": 7693,
      "##case": 7694,
      "##hab": 7695,
      "##RR": 7696,
      "##erving": 7697,
      "thy": 7698,
      "thong": 7699,
      "thur": 7700,
      "##ayed": 7701,
      "stitches": 7702,
      "shield": 7703,
      "doa": 7704,
      "getaway": 7705,
      "##imed": 7706,
      "##raction": 7707,
      "notes": 7708,
      "anx": 7709,
      "worship": 7710,
      "##oodoo": 7711,
      "##ilities": 7712,
      "##roc": 7713,
      "spare": 7714,
      "##iggle": 7715,
      "flown": 7716,
      "lighter": 7717,
      "caused": 7718,
      "science": 7719,
      "Beyond": 7720,
      "##antly": 7721,
      "cared": 7722,
      "naive": 7723,
      "nail": 7724,
      "unb": 7725,
      "stressed": 7726,
      "##epend": 7727,
      "driver": 7728,
      "grad": 7729,
      "Place": 7730,
      "##shot": 7731,
      "adrenaline": 7732,
      "contempl": 7733,
      "wallet": 7734,
      "Fucking": 7735,
      "Swing": 7736,
      "breathless": 7737,
      "tighter": 7738,
      "prick": 7739,
      "papa": 7740,
      "filling": 7741,
      "Twist": 7742,
      "confident": 7743,
      "stickin": 7744,
      "##ersey": 7745,
      "snake": 7746,
      "motel": 7747,
      "deals": 7748,
      "Smith": 7749,
      "##ivid": 7750,
      "dressing": 7751,
      "denial": 7752,
      "circus": 7753,
      "##boat": 7754,
      "grime": 7755,
      "Frank": 7756,
      "ignor": 7757,
      "survived": 7758,
      "Phil": 7759,
      "disgrace": 7760,
      "pimps": 7761,
      "blessing": 7762,
      "frag": 7763,
      "##breakable": 7764,
      "Trick": 7765,
      "Paper": 7766,
      "Southside": 7767,
      "banana": 7768,
      "millions": 7769,
      "entire": 7770,
      "venom": 7771,
      "rotten": 7772,
      "curtains": 7773,
      "provide": 7774,
      "opinion": 7775,
      "consequences": 7776,
      "lawyer": 7777,
      "college": 7778,
      "Control": 7779,
      "comfortable": 7780,
      "cousin": 7781,
      "Different": 7782,
      "submarine": 7783,
      "2X": 7784,
      "Aut": 7785,
      "Bus": 7786,
      "Dam": 7787,
      "Ele": 7788,
      "Feed": 7789,
      "Felt": 7790,
      "G5": 7791,
      "Gri": 7792,
      "Hust": 7793,
      "Hol": 7794,
      "Ich": 7795,
      "Keys": 7796,
      "ME": 7797,
      "Mal": 7798,
      "Number": 7799,
      "Past": 7800,
      "Rud": 7801,
      "Sue": 7802,
      "Soft": 7803,
      "Tre": 7804,
      "fel": 7805,
      "flex": 7806,
      "ge": 7807,
      "hay": 7808,
      "jar": 7809,
      "mut": 7810,
      "mort": 7811,
      "pend": 7812,
      "peak": 7813,
      "puzz": 7814,
      "rushing": 7815,
      "tim": 7816,
      "vu": 7817,
      "yee": 7818,
      "##tips": 7819,
      "##vie": 7820,
      "##cles": 7821,
      "##kward": 7822,
      "##wr": 7823,
      "##AP": 7824,
      "##ati": 7825,
      "tock": 7826,
      "##vest": 7827,
      "##orous": 7828,
      "##oted": 7829,
      "lime": 7830,
      "loco": 7831,
      "##isy": 7832,
      "receive": 7833,
      "request": 7834,
      "socks": 7835,
      "social": 7836,
      "##riage": 7837,
      "Thursday": 7838,
      "##ainted": 7839,
      "wantin": 7840,
      "##ige": 7841,
      "Ohoh": 7842,
      "##inem": 7843,
      "##ilight": 7844,
      "goodby": 7845,
      "flippin": 7846,
      "usual": 7847,
      "orbit": 7848,
      "lighting": 7849,
      "puttin": 7850,
      "##berg": 7851,
      "##agree": 7852,
      "Ford": 7853,
      "belief": 7854,
      "sung": 7855,
      "Island": 7856,
      "Taken": 7857,
      "firework": 7858,
      "##ples": 7859,
      "##male": 7860,
      "glows": 7861,
      "touchin": 7862,
      "hollywood": 7863,
      "##abet": 7864,
      "coz": 7865,
      "Blame": 7866,
      "opens": 7867,
      "freakin": 7868,
      "mayne": 7869,
      "Space": 7870,
      "listened": 7871,
      "##ogue": 7872,
      "heavenly": 7873,
      "fooling": 7874,
      "Sweat": 7875,
      "Claus": 7876,
      "speaks": 7877,
      "relief": 7878,
      "reminis": 7879,
      "Hearts": 7880,
      "snitch": 7881,
      "sucking": 7882,
      "blocks": 7883,
      "Above": 7884,
      "quicker": 7885,
      "mics": 7886,
      "doubts": 7887,
      "##iii": 7888,
      "bumping": 7889,
      "##uggin": 7890,
      "Marilyn": 7891,
      "reflect": 7892,
      "temple": 7893,
      "heroin": 7894,
      "climbing": 7895,
      "linger": 7896,
      "ignored": 7897,
      "buttons": 7898,
      "artist": 7899,
      "mentally": 7900,
      "##aaaaaa": 7901,
      "writer": 7902,
      "advantage": 7903,
      "towel": 7904,
      "bucks": 7905,
      "models": 7906,
      "Sleeping": 7907,
      "scheme": 7908,
      "sacred": 7909,
      "rattle": 7910,
      "Adam": 7911,
      "cigarettes": 7912,
      "female": 7913,
      "arrived": 7914,
      "fiends": 7915,
      "buddy": 7916,
      "##calo": 7917,
      "bouncing": 7918,
      "ninety": 7919,
      "sensation": 7920,
      "Psycho": 7921,
      "Maxine": 7922,
      "Mirror": 7923,
      "Lemme": 7924,
      "Excuse": 7925,
      "Higher": 7926,
      "Morning": 7927,
      ")..[": 7928,
      "Band": 7929,
      "Candy": 7930,
      "Drew": 7931,
      "Diana": 7932,
      "EH": 7933,
      "Fu": 7934,
      "Hen": 7935,
      "Hush": 7936,
      "Ken": 7937,
      "Mack": 7938,
      "Mos": 7939,
      "None": 7940,
      "Nike": 7941,
      "Pus": 7942,
      "Vi": 7943,
      "Wall": 7944,
      "Woke": 7945,
      "ax": 7946,
      "ach": 7947,
      "camp": 7948,
      "cities": 7949,
      "cotton": 7950,
      "dome": 7951,
      "eff": 7952,
      "elect": 7953,
      "fem": 7954,
      "guts": 7955,
      "jock": 7956,
      "lend": 7957,
      "ooooo": 7958,
      "##ez": 7959,
      "##ius": 7960,
      "##bin": 7961,
      "##ho": 7962,
      "##wide": 7963,
      "##field": 7964,
      "##OM": 7965,
      "##13": 7966,
      "##eran": 7967,
      "##anas": 7968,
      "##orious": 7969,
      "offe": 7970,
      "stalk": 7971,
      "reb": 7972,
      "##idal": 7973,
      "##--[": 7974,
      "canta": 7975,
      "##oma": 7976,
      "government": 7977,
      "##aud": 7978,
      "##igo": 7979,
      "##ilar": 7980,
      "sheesh": 7981,
      "willow": 7982,
      "..)[": 7983,
      "spy": 7984,
      "##icks": 7985,
      "Ins": 7986,
      "##eland": 7987,
      "##bey": 7988,
      "drank": 7989,
      "lem": 7990,
      "Within": 7991,
      "prec": 7992,
      "prince": 7993,
      "quier": 7994,
      "bucket": 7995,
      "greet": 7996,
      "##uba": 7997,
      "disagree": 7998,
      "##ables": 7999,
      "coal": 8000,
      "wonders": 8001,
      "##tiness": 8002,
      "starin": 8003,
      "Brrah": 8004,
      "giant": 8005,
      "recover": 8006,
      "awkward": 8007,
      "speakers": 8008,
      "appetite": 8009,
      "Anybody": 8010,
      "losers": 8011,
      "marching": 8012,
      "Called": 8013,
      "tale": 8014,
      "##orsche": 8015,
      "coupe": 8016,
      "Screw": 8017,
      "emptiness": 8018,
      "corners": 8019,
      "dresses": 8020,
      "Flow": 8021,
      "Kissing": 8022,
      "sixty": 8023,
      "hustler": 8024,
      "priceless": 8025,
      "jobs": 8026,
      "romantic": 8027,
      "internet": 8028,
      "David": 8029,
      "##yyyy": 8030,
      "hooker": 8031,
      "rybody": 8032,
      "##alalalal": 8033,
      "diggin": 8034,
      "##HHHH": 8035,
      "198": 8036,
      "defeated": 8037,
      "Hurry": 8038,
      "orders": 8039,
      "Gangstas": 8040,
      "feds": 8041,
      "muthafuckin": 8042,
      "teachers": 8043,
      "Bullet": 8044,
      "skelet": 8045,
      "skelter": 8046,
      "borrowed": 8047,
      "ambition": 8048,
      "pavement": 8049,
      "Irish": 8050,
      "signal": 8051,
      "Rumour": 8052,
      "Creole": 8053,
      "sofa": 8054,
      "cartoon": 8055,
      "travelling": 8056,
      "sauce": 8057,
      "nurse": 8058,
      "Scratch": 8059,
      "Jamaica": 8060,
      "upgrade": 8061,
      "##olutely": 8062,
      "thurr": 8063,
      "17": 8064,
      "??[": 8065,
      "?![": 8066,
      "Avenue": 8067,
      "Bow": 8068,
      "Bott": 8069,
      "Cy": 8070,
      "Cons": 8071,
      "Ign": 8072,
      "Ms": 8073,
      "Mil": 8074,
      "NO": 8075,
      "Naked": 8076,
      "Pa": 8077,
      "Raw": 8078,
      "Rule": 8079,
      "Serve": 8080,
      "ber": 8081,
      "bond": 8082,
      "ci": 8083,
      "ding": 8084,
      "eve": 8085,
      "fee": 8086,
      "fountain": 8087,
      "fiction": 8088,
      "igh": 8089,
      "mush": 8090,
      "pul": 8091,
      "rate": 8092,
      "sue": 8093,
      "tin": 8094,
      "wid": 8095,
      "zoom": 8096,
      "##oir": 8097,
      "##iant": 8098,
      "##pre": 8099,
      "##fold": 8100,
      "##AS": 8101,
      "##anium": 8102,
      "##real": 8103,
      "thump": 8104,
      "##sense": 8105,
      "rev": 8106,
      "shallow": 8107,
      "shirts": 8108,
      "##urity": 8109,
      "Thug": 8110,
      "]('": 8111,
      "choked": 8112,
      "heights": 8113,
      "##rock": 8114,
      "roc": 8115,
      "lifestyle": 8116,
      ".....": 8117,
      "flipped": 8118,
      "betta": 8119,
      "slight": 8120,
      "slice": 8121,
      "office": 8122,
      "Stat": 8123,
      "Stone": 8124,
      "##ulum": 8125,
      "##ults": 8126,
      "##ahh": 8127,
      "realise": 8128,
      "Whoah": 8129,
      "hoped": 8130,
      "daze": 8131,
      "armor": 8132,
      "asshole": 8133,
      "sleepless": 8134,
      "##oken": 8135,
      "latest": 8136,
      "dropping": 8137,
      "mines": 8138,
      "laund": 8139,
      "useless": 8140,
      "wasteland": 8141,
      "humming": 8142,
      "lands": 8143,
      "Dec": 8144,
      "##hale": 8145,
      "Trans": 8146,
      "mistaken": 8147,
      "freaks": 8148,
      "pencil": 8149,
      "retarded": 8150,
      "Dressed": 8151,
      "Quit": 8152,
      "stormy": 8153,
      "burnt": 8154,
      "yelling": 8155,
      "Cali": 8156,
      "tempor": 8157,
      "obsessed": 8158,
      "grie": 8159,
      "devils": 8160,
      "boulevard": 8161,
      "whispered": 8162,
      "fox": 8163,
      "Crying": 8164,
      "Mercury": 8165,
      "lyrical": 8166,
      "account": 8167,
      "rything": 8168,
      "crosses": 8169,
      "masterpie": 8170,
      "neighbors": 8171,
      "succeed": 8172,
      "oppos": 8173,
      "Spinning": 8174,
      "defense": 8175,
      "stacks": 8176,
      "equal": 8177,
      "connected": 8178,
      "Hahaha": 8179,
      "Middle": 8180,
      "##ING": 8181,
      "Harlem": 8182,
      "##imental": 8183,
      "187": 8184,
      "photographs": 8185,
      "Captain": 8186,
      "responsible": 8187,
      "Celebr": 8188,
      "shinin": 8189,
      "savior": 8190,
      "##ltrav": 8191,
      "huge": 8192,
      "necklace": 8193,
      "infinity": 8194,
      "goodbyes": 8195,
      "38": 8196,
      "?\"": 8197,
      "Ari": 8198,
      "BL": 8199,
      "BAN": 8200,
      "Bizarre": 8201,
      "C5": 8202,
      "Dan": 8203,
      "Den": 8204,
      "Ext": 8205,
      "FUCK": 8206,
      "Ga": 8207,
      "GO": 8208,
      "Ghost": 8209,
      "Ima": 8210,
      "Min": 8211,
      "Master": 8212,
      "Nine": 8213,
      "Por": 8214,
      "Pur": 8215,
      "Predictable": 8216,
      "Ray": 8217,
      "Rep": 8218,
      "Rih": 8219,
      "SH": 8220,
      "Sub": 8221,
      "Tab": 8222,
      "avo": 8223,
      "bong": 8224,
      "eb": 8225,
      "eah": 8226,
      "gau": 8227,
      "hound": 8228,
      "jazz": 8229,
      "mart": 8230,
      "pile": 8231,
      "patch": 8232,
      "pardon": 8233,
      "sanity": 8234,
      "vow": 8235,
      "vicious": 8236,
      "x7": 8237,
      "##iß": 8238,
      "##uised": 8239,
      "##rd": 8240,
      "##ham": 8241,
      "##haps": 8242,
      "##wl": 8243,
      "##foot": 8244,
      "##TP": 8245,
      "##ét": 8246,
      "##,[": 8247,
      "toll": 8248,
      "thе": 8249,
      "##eezy": 8250,
      "##sey": 8251,
      "liber": 8252,
      "log": 8253,
      "##omenal": 8254,
      "stutter": 8255,
      "storms": 8256,
      "rece": 8257,
      "revol": 8258,
      "babble": 8259,
      "knuck": 8260,
      "web": 8261,
      "##cense": 8262,
      "doc": 8263,
      "##omy": 8264,
      "##rible": 8265,
      "##rous": 8266,
      "##icals": 8267,
      "veget": 8268,
      "blo": 8269,
      "lawn": 8270,
      "goodness": 8271,
      "Inno": 8272,
      "sling": 8273,
      "slaughter": 8274,
      "usin": 8275,
      "leap": 8276,
      "##aste": 8277,
      "didnt": 8278,
      "definitely": 8279,
      "Changing": 8280,
      "##ocks": 8281,
      "friendly": 8282,
      "presc": 8283,
      "caress": 8284,
      "beatin": 8285,
      "trips": 8286,
      "checks": 8287,
      "Tellin": 8288,
      "Almost": 8289,
      "phase": 8290,
      "contro": 8291,
      "lower": 8292,
      "minor": 8293,
      "Swallow": 8294,
      "##ails": 8295,
      "sits": 8296,
      "Diddy": 8297,
      "tightly": 8298,
      "compromise": 8299,
      "fills": 8300,
      "weary": 8301,
      "fulfill": 8302,
      "complicate": 8303,
      "Upon": 8304,
      "gangstas": 8305,
      "Scar": 8306,
      "Standin": 8307,
      "intuition": 8308,
      "Blackout": 8309,
      "humanity": 8310,
      "queens": 8311,
      "Wanted": 8312,
      "caps": 8313,
      "capital": 8314,
      "report": 8315,
      "oceans": 8316,
      "survival": 8317,
      "##atural": 8318,
      "fingertips": 8319,
      "digital": 8320,
      "##ickel": 8321,
      "Louder": 8322,
      "questioning": 8323,
      "##ruct": 8324,
      "seventh": 8325,
      "##????": 8326,
      "thugs": 8327,
      "thriller": 8328,
      "hahaha": 8329,
      "legacy": 8330,
      "oughtta": 8331,
      "stained": 8332,
      "degrees": 8333,
      "karat": 8334,
      "Satan": 8335,
      "gorgeous": 8336,
      "Floating": 8337,
      "Clean": 8338,
      "influ": 8339,
      "spoil": 8340,
      "spaceship": 8341,
      "Closer": 8342,
      "benz": 8343,
      "definition": 8344,
      "levitate": 8345,
      "Wednesday": 8346,
      "Rudolf": 8347,
      "##ltraviolence": 8348,
      "Ass": 8349,
      "Aud": 8350,
      "Bare": 8351,
      "BIT": 8352,
      "Cru": 8353,
      "EM": 8354,
      "Full": 8355,
      "Him": 8356,
      "Ke": 8357,
      "Kings": 8358,
      "Lam": 8359,
      "Los": 8360,
      "Nor": 8361,
      "Ros": 8362,
      "Sign": 8363,
      "Tan": 8364,
      "Tight": 8365,
      "Very": 8366,
      "Wasted": 8367,
      "cycle": 8368,
      "dues": 8369,
      "fir": 8370,
      "gum": 8371,
      "mur": 8372,
      "nap": 8373,
      "nana": 8374,
      "nanana": 8375,
      "peel": 8376,
      "pier": 8377,
      "rooms": 8378,
      "sine": 8379,
      "wut": 8380,
      "wip": 8381,
      "##matic": 8382,
      "##li": 8383,
      "##lation": 8384,
      "##kers": 8385,
      "##bid": 8386,
      "##UN": 8387,
      "##URE": 8388,
      "##ID": 8389,
      "##NA": 8390,
      "##éd": 8391,
      "##ata": 8392,
      "##llip": 8393,
      "loop": 8394,
      "##omed": 8395,
      "whirl": 8396,
      "kneel": 8397,
      "##aken": 8398,
      "hail": 8399,
      "dock": 8400,
      "##naun": 8401,
      "##ura": 8402,
      "##henker": 8403,
      "##rick": 8404,
      "necess": 8405,
      "notion": 8406,
      "##icip": 8407,
      "align": 8408,
      "chart": 8409,
      "##ilate": 8410,
      "##usions": 8411,
      "spun": 8412,
      "spitting": 8413,
      "##ardless": 8414,
      ".....[": 8415,
      "brew": 8416,
      "Stole": 8417,
      "org": 8418,
      "trance": 8419,
      "dew": 8420,
      "belt": 8421,
      "Dogg": 8422,
      "##antom": 8423,
      "exch": 8424,
      "Oohh": 8425,
      "buff": 8426,
      "trial": 8427,
      "touchdown": 8428,
      "chedd": 8429,
      "cozy": 8430,
      "##nessee": 8431,
      "Girlfriend": 8432,
      "grain": 8433,
      "floss": 8434,
      "Keepin": 8435,
      "Spring": 8436,
      "Bridge": 8437,
      "##ipper": 8438,
      "sealed": 8439,
      "Holdin": 8440,
      "earn": 8441,
      "mouths": 8442,
      "Outside": 8443,
      "##uffle": 8444,
      "remove": 8445,
      "Twerk": 8446,
      "Def": 8447,
      "superman": 8448,
      "Schenker": 8449,
      "penis": 8450,
      "penny": 8451,
      "delicate": 8452,
      "collar": 8453,
      "footprints": 8454,
      "Const": 8455,
      "obs": 8456,
      "obsess": 8457,
      "pourin": 8458,
      "##anye": 8459,
      "Empty": 8460,
      "##mbol": 8461,
      "##hetic": 8462,
      "satisfy": 8463,
      "Mercedes": 8464,
      "Tech": 8465,
      "Settle": 8466,
      "Missy": 8467,
      "Missing": 8468,
      "Instrumental": 8469,
      "Jeff": 8470,
      "pawn": 8471,
      "candlelight": 8472,
      "suffering": 8473,
      "Bono": 8474,
      "Summertime": 8475,
      "uncondition": 8476,
      "##ription": 8477,
      "Magic": 8478,
      "luv": 8479,
      "convinced": 8480,
      "Soldier": 8481,
      "Juliet": 8482,
      "Records": 8483,
      "Galway": 8484,
      "frightened": 8485,
      "Susie": 8486,
      "upstairs": 8487,
      "Shadow": 8488,
      "##IGH": 8489,
      "##stitute": 8490,
      "airplanes": 8491,
      "Strawberry": 8492,
      "Cherry": 8493,
      "american": 8494,
      "Champagne": 8495,
      "pendulum": 8496,
      "##iße": 8497,
      "BITCH": 8498,
      "1st": 8499,
      "AP": 8500,
      "Ama": 8501,
      "Aww": 8502,
      "Bed": 8503,
      "Gen": 8504,
      "Ive": 8505,
      "Jord": 8506,
      "Janie": 8507,
      "Lock": 8508,
      "Luc": 8509,
      "Nik": 8510,
      "Ru": 8511,
      "Ram": 8512,
      "Rog": 8513,
      "Si": 8514,
      "Sned": 8515,
      "Silly": 8516,
      "Tie": 8517,
      "Wooh": 8518,
      "Wrapped": 8519,
      "Yet": 8520,
      "Yup": 8521,
      "]?": 8522,
      "ais": 8523,
      "aus": 8524,
      "bees": 8525,
      "fitted": 8526,
      "guest": 8527,
      "goose": 8528,
      "hitting": 8529,
      "mop": 8530,
      "mour": 8531,
      "mals": 8532,
      "maker": 8533,
      "nic": 8534,
      "op": 8535,
      "patter": 8536,
      "ree": 8537,
      "site": 8538,
      "southern": 8539,
      "tangled": 8540,
      "##maker": 8541,
      "##iate": 8542,
      "##dess": 8543,
      "##rão": 8544,
      "##po": 8545,
      "##pack": 8546,
      "##cere": 8547,
      "##cast": 8548,
      "##VE": 8549,
      "##ón": 8550,
      "##oun": 8551,
      "tomb": 8552,
      "todo": 8553,
      "mes": 8554,
      "bene": 8555,
      "lollip": 8556,
      "##vert": 8557,
      "##isse": 8558,
      "##arily": 8559,
      "knot": 8560,
      "wept": 8561,
      "##usta": 8562,
      "ish": 8563,
      "shor": 8564,
      "dozen": 8565,
      "##nally": 8566,
      "##adium": 8567,
      "##enie": 8568,
      "nod": 8569,
      "##rial": 8570,
      "##lyde": 8571,
      "outer": 8572,
      "##icy": 8573,
      "chip": 8574,
      "chandel": 8575,
      "##ament": 8576,
      "Ohhhhh": 8577,
      "##ieves": 8578,
      "reaction": 8579,
      "area": 8580,
      "##imm": 8581,
      "sheet": 8582,
      "##pple": 8583,
      "spins": 8584,
      "fack": 8585,
      "faced": 8586,
      "Held": 8587,
      "...\"[": 8588,
      "tools": 8589,
      "wah": 8590,
      "Inc": 8591,
      "Inter": 8592,
      "Liar": 8593,
      "Steal": 8594,
      "bran": 8595,
      "skirt": 8596,
      "undercover": 8597,
      "exam": 8598,
      "print": 8599,
      "##vinci": 8600,
      "freeway": 8601,
      "united": 8602,
      "unstoppable": 8603,
      "rained": 8604,
      "watchy": 8605,
      "tramp": 8606,
      "bothered": 8607,
      "coin": 8608,
      "activ": 8609,
      "monsters": 8610,
      "hurtin": 8611,
      "Already": 8612,
      "phrase": 8613,
      "Britney": 8614,
      "happenin": 8615,
      "Club": 8616,
      "hangs": 8617,
      "##onesome": 8618,
      "--|": 8619,
      "marij": 8620,
      "curious": 8621,
      "landed": 8622,
      "Devil": 8623,
      "Denaun": 8624,
      "##ibility": 8625,
      "ruled": 8626,
      "chained": 8627,
      "Lev": 8628,
      "clever": 8629,
      "disturb": 8630,
      "denim": 8631,
      "Playin": 8632,
      "Sean": 8633,
      "Roller": 8634,
      "rapping": 8635,
      "honesty": 8636,
      "choices": 8637,
      "independ": 8638,
      "##vention": 8639,
      "Eminem": 8640,
      "Dreams": 8641,
      "purse": 8642,
      "stares": 8643,
      "Mercy": 8644,
      "Sunshine": 8645,
      "replaced": 8646,
      "quietly": 8647,
      "eleph": 8648,
      "aiming": 8649,
      "Mission": 8650,
      "juke": 8651,
      "victory": 8652,
      "volume": 8653,
      "coward": 8654,
      "Poor": 8655,
      "froze": 8656,
      "Tommy": 8657,
      "Blowing": 8658,
      "ratchet": 8659,
      "prisoner": 8660,
      "defend": 8661,
      "inform": 8662,
      "becoming": 8663,
      "Hooker": 8664,
      "paraly": 8665,
      "casket": 8666,
      "mami": 8667,
      "Brand": 8668,
      "nonsense": 8669,
      "##valry": 8670,
      "spilled": 8671,
      "garbage": 8672,
      "Drinking": 8673,
      "##struck": 8674,
      "relationships": 8675,
      "Speaking": 8676,
      "Especially": 8677,
      "racks": 8678,
      "Royce": 8679,
      "gurls": 8680,
      "issues": 8681,
      "hollerin": 8682,
      "thorns": 8683,
      "fantasies": 8684,
      "tissue": 8685,
      "Dollar": 8686,
      "Sneddon": 8687,
      "##vincible": 8688,
      "-)[": 8689,
      "AN": 8690,
      "Ale": 8691,
      "Aaah": 8692,
      "Bb": 8693,
      "Bend": 8694,
      "Birds": 8695,
      "Cu": 8696,
      "Cus": 8697,
      "Fine": 8698,
      "Ferg": 8699,
      "Hou": 8700,
      "Ibra": 8701,
      "Kanye": 8702,
      "Lot": 8703,
      "Lick": 8704,
      "Losing": 8705,
      "Mel": 8706,
      "Mist": 8707,
      "Om": 8708,
      "Oooooh": 8709,
      "Sin": 8710,
      "Vu": 8711,
      "Waking": 8712,
      "WHO": 8713,
      "Wooooh": 8714,
      "Wizard": 8715,
      "caus": 8716,
      "dent": 8717,
      "ditch": 8718,
      "gear": 8719,
      "laser": 8720,
      "mold": 8721,
      "matt": 8722,
      "nines": 8723,
      "oun": 8724,
      "tame": 8725,
      "tides": 8726,
      "vin": 8727,
      "vag": 8728,
      "##su": 8729,
      "##iance": 8730,
      "##nel": 8731,
      "##uana": 8732,
      "##book": 8733,
      "##EE": 8734,
      "##him": 8735,
      "##wling": 8736,
      "##ffe": 8737,
      "##anan": 8738,
      "mell": 8739,
      "meth": 8740,
      "##itz": 8741,
      "##stition": 8742,
      "##uty": 8743,
      "ing": 8744,
      "stable": 8745,
      "rehab": 8746,
      "whipped": 8747,
      "bae": 8748,
      "bagg": 8749,
      "##--|[": 8750,
      "##assed": 8751,
      "knowledge": 8752,
      "cane": 8753,
      "doves": 8754,
      "noon": 8755,
      "soci": 8756,
      "justify": 8757,
      "##ria": 8758,
      "##opes": 8759,
      "##odka": 8760,
      "##igma": 8761,
      "##icing": 8762,
      "##icorn": 8763,
      "sometime": 8764,
      "chim": 8765,
      "##feit": 8766,
      "##robe": 8767,
      "maniac": 8768,
      "##ander": 8769,
      "facing": 8770,
      "flee": 8771,
      "Toast": 8772,
      "keeper": 8773,
      "##ifer": 8774,
      "amor": 8775,
      "emc": 8776,
      "hometown": 8777,
      "smacked": 8778,
      "craz": 8779,
      "##acing": 8780,
      "strut": 8781,
      "However": 8782,
      "freestyle": 8783,
      "##abama": 8784,
      "doorway": 8785,
      "cris": 8786,
      "cruc": 8787,
      "acted": 8788,
      "musical": 8789,
      "starving": 8790,
      "Putting": 8791,
      "cuttin": 8792,
      "growin": 8793,
      "Swim": 8794,
      "Swift": 8795,
      "meeting": 8796,
      "Aha": 8797,
      "awe": 8798,
      "##phine": 8799,
      "cursed": 8800,
      "current": 8801,
      "yearning": 8802,
      "##sweet": 8803,
      "fourth": 8804,
      "belonged": 8805,
      "banging": 8806,
      "##iva": 8807,
      "homicide": 8808,
      "##hhhhh": 8809,
      "denied": 8810,
      "horror": 8811,
      "##flon": 8812,
      "healthy": 8813,
      "##irteen": 8814,
      "Listening": 8815,
      "fixed": 8816,
      "wiser": 8817,
      "polar": 8818,
      "idol": 8819,
      "excuses": 8820,
      "passes": 8821,
      "Damned": 8822,
      "chased": 8823,
      "scratches": 8824,
      "##mbling": 8825,
      "attacks": 8826,
      "Daisy": 8827,
      "##aaaaa": 8828,
      "2000": 8829,
      "thangs": 8830,
      "Trip": 8831,
      "Paint": 8832,
      "drawer": 8833,
      "Bloody": 8834,
      "cooking": 8835,
      "shopping": 8836,
      "Wildest": 8837,
      "##nsion": 8838,
      "stores": 8839,
      "existence": 8840,
      "anti": 8841,
      "anticip": 8842,
      "Oba": 8843,
      "diggity": 8844,
      "gyal": 8845,
      "schemes": 8846,
      "feather": 8847,
      "correct": 8848,
      "pepper": 8849,
      "Kicking": 8850,
      "Color": 8851,
      "Tennessee": 8852,
      "prepare": 8853,
      "designed": 8854,
      "rollercoaster": 8855,
      "Refrão": 8856,
      "negative": 8857,
      "rags": 8858,
      "critics": 8859,
      "faggots": 8860,
      "psychopath": 8861,
      "inspiration": 8862,
      "Irv": 8863,
      "mothafucka": 8864,
      "hypnotized": 8865,
      "sweater": 8866,
      "Wearing": 8867,
      "option": 8868,
      "gotsa": 8869,
      "underwear": 8870,
      "Silver": 8871,
      "susp": 8872,
      "Victim": 8873,
      "riches": 8874,
      "##pensive": 8875,
      "Lucy": 8876,
      "Barbara": 8877,
      "hottest": 8878,
      "laundry": 8879,
      "36": 8880,
      "8x": 8881,
      "Apl": 8882,
      "Cop": 8883,
      "Cast": 8884,
      "D5": 8885,
      "Foot": 8886,
      "Jess": 8887,
      "Low": 8888,
      "Las": 8889,
      "Land": 8890,
      "Lamb": 8891,
      "Non": 8892,
      "Que": 8893,
      "Sink": 8894,
      "Sail": 8895,
      "Tick": 8896,
      "Tip": 8897,
      "Timb": 8898,
      "X2": 8899,
      "biz": 8900,
      "cave": 8901,
      "cord": 8902,
      "cope": 8903,
      "gut": 8904,
      "ive": 8905,
      "mate": 8906,
      "pizz": 8907,
      "rave": 8908,
      "rays": 8909,
      "sane": 8910,
      "sista": 8911,
      "##moon": 8912,
      "##lv": 8913,
      "##ex": 8914,
      "##sies": 8915,
      "##tis": 8916,
      "##natural": 8917,
      "##rant": 8918,
      "##ban": 8919,
      "##h1": 8920,
      "##hou": 8921,
      "##fish": 8922,
      "##ouses": 8923,
      "##erang": 8924,
      "##oning": 8925,
      "##anet": 8926,
      "##anel": 8927,
      "invincible": 8928,
      "##semble": 8929,
      "liver": 8930,
      "bes": 8931,
      "##ede": 8932,
      "dod": 8933,
      "##aden": 8934,
      "##enses": 8935,
      "sore": 8936,
      "soda": 8937,
      "Thing": 8938,
      "Butter": 8939,
      "##thouse": 8940,
      "##ores": 8941,
      "seeking": 8942,
      "##-------": 8943,
      "##igator": 8944,
      "washing": 8945,
      "alot": 8946,
      "choo": 8947,
      "##inkle": 8948,
      "bla": 8949,
      "blan": 8950,
      "blea": 8951,
      "blades": 8952,
      "##ums": 8953,
      "##imal": 8954,
      "spoon": 8955,
      "whoever": 8956,
      "##---------": 8957,
      "Liber": 8958,
      "swept": 8959,
      "Shar": 8960,
      "China": 8961,
      "##ously": 8962,
      "underdog": 8963,
      "supers": 8964,
      "expensive": 8965,
      "divor": 8966,
      "sideways": 8967,
      "poster": 8968,
      "coco": 8969,
      "kindness": 8970,
      "monst": 8971,
      "Blind": 8972,
      "Alabama": 8973,
      "Revenge": 8974,
      "Spit": 8975,
      "surg": 8976,
      "accent": 8977,
      "catchin": 8978,
      "eats": 8979,
      "baller": 8980,
      "sooner": 8981,
      "trusted": 8982,
      "parked": 8983,
      "Anyone": 8984,
      "##stern": 8985,
      "march": 8986,
      "worthwhile": 8987,
      "motive": 8988,
      "greener": 8989,
      "Singin": 8990,
      "dealing": 8991,
      "satellite": 8992,
      "Wanting": 8993,
      "##flakes": 8994,
      "cocky": 8995,
      "scen": 8996,
      "escal": 8997,
      "bustin": 8998,
      "lifted": 8999,
      "Prince": 9000,
      "hype": 9001,
      "grindin": 9002,
      "pumpin": 9003,
      "blessings": 9004,
      "Arm": 9005,
      "swallowed": 9006,
      "##belie": 9007,
      "Monkey": 9008,
      "Whitey": 9009,
      "element": 9010,
      "cases": 9011,
      "Killer": 9012,
      "addiction": 9013,
      "flashin": 9014,
      "flashback": 9015,
      "Para": 9016,
      "marks": 9017,
      "buckle": 9018,
      "robot": 9019,
      "destroyed": 9020,
      "tube": 9021,
      "postc": 9022,
      "mamma": 9023,
      "Brain": 9024,
      "deter": 9025,
      "served": 9026,
      "##onald": 9027,
      "hidin": 9028,
      "constantly": 9029,
      "##osphere": 9030,
      "Teachers": 9031,
      "Children": 9032,
      "successful": 9033,
      "unkind": 9034,
      "extreme": 9035,
      "Growing": 9036,
      "Mmmmmm": 9037,
      "politic": 9038,
      "styles": 9039,
      "taxi": 9040,
      "cannon": 9041,
      "sweating": 9042,
      "practice": 9043,
      "##gypt": 9044,
      "audience": 9045,
      "##amikaze": 9046,
      "totally": 9047,
      "seventeen": 9048,
      "Africa": 9049,
      "President": 9050,
      "eagle": 9051,
      "panties": 9052,
      "toilet": 9053,
      "doggone": 9054,
      "education": 9055,
      "Pussy": 9056,
      "masterpiece": 9057,
      "BANG": 9058,
      "##IGHT": 9059,
      "Houston": 9060,
      "(*": 9061,
      "*}": 9062,
      "32": 9063,
      "Cat": 9064,
      "Coo": 9065,
      "Clyde": 9066,
      "Dust": 9067,
      "Danie": 9068,
      "Fare": 9069,
      "Jet": 9070,
      "Jude": 9071,
      "Lane": 9072,
      "Looked": 9073,
      "Mess": 9074,
      "Mark": 9075,
      "Mach": 9076,
      "OH": 9077,
      "Rather": 9078,
      "SO": 9079,
      "Tour": 9080,
      "Takin": 9081,
      "Wash": 9082,
      "bin": 9083,
      "bid": 9084,
      "cease": 9085,
      "dj": 9086,
      "fry": 9087,
      "fantastic": 9088,
      "jury": 9089,
      "jason": 9090,
      "kite": 9091,
      "muh": 9092,
      "noose": 9093,
      "pir": 9094,
      "pitch": 9095,
      "sé": 9096,
      "tales": 9097,
      "##avity": 9098,
      "##lan": 9099,
      "##list": 9100,
      "##ially": 9101,
      "##nc": 9102,
      "##nis": 9103,
      "##dam": 9104,
      "##rit": 9105,
      "##wise": 9106,
      "##GG": 9107,
      "##~~": 9108,
      "youre": 9109,
      "toward": 9110,
      "thieves": 9111,
      "meta": 9112,
      "##ordy": 9113,
      "##stery": 9114,
      "stroll": 9115,
      "##ask": 9116,
      "haz": 9117,
      "cancer": 9118,
      "ships": 9119,
      "getcha": 9120,
      "##rive": 9121,
      "##ophy": 9122,
      "##icidal": 9123,
      "alter": 9124,
      "Ohhhh": 9125,
      "##inkin": 9126,
      "##uming": 9127,
      "lah": 9128,
      "##immy": 9129,
      "##ctors": 9130,
      "mane": 9131,
      "daytime": 9132,
      "fag": 9133,
      "Helter": 9134,
      "Invisible": 9135,
      "slapped": 9136,
      "trad": 9137,
      "##ifice": 9138,
      "embar": 9139,
      "swirl": 9140,
      "swift": 9141,
      "Shock": 9142,
      "longest": 9143,
      "##istry": 9144,
      "conv": 9145,
      "enc": 9146,
      "craving": 9147,
      "Cha": 9148,
      "Chasing": 9149,
      "oohh": 9150,
      "##osition": 9151,
      "suits": 9152,
      "intox": 9153,
      "believes": 9154,
      "##eoples": 9155,
      "bub": 9156,
      "bully": 9157,
      "pains": 9158,
      "painful": 9159,
      "grenade": 9160,
      "forehead": 9161,
      "Goddamn": 9162,
      "crashed": 9163,
      "crooked": 9164,
      "Gossip": 9165,
      "kinds": 9166,
      "Alice": 9167,
      "sweetness": 9168,
      "security": 9169,
      "forgetting": 9170,
      "Spir": 9171,
      "Slay": 9172,
      "bloodst": 9173,
      "brightest": 9174,
      "earned": 9175,
      "differently": 9176,
      "##phis": 9177,
      "payphone": 9178,
      "tasted": 9179,
      "Yoü": 9180,
      "explodes": 9181,
      "rides": 9182,
      "Showin": 9183,
      "insanity": 9184,
      "moms": 9185,
      "colored": 9186,
      "counter": 9187,
      "boomerang": 9188,
      "Comp": 9189,
      "spots": 9190,
      "dolla": 9191,
      "murdering": 9192,
      "capt": 9193,
      "##tember": 9194,
      "##velop": 9195,
      "##alem": 9196,
      "delir": 9197,
      "sentence": 9198,
      "indeed": 9199,
      "Gramma": 9200,
      "torch": 9201,
      "Prin": 9202,
      "monkeys": 9203,
      "##axy": 9204,
      "intern": 9205,
      "Wrong": 9206,
      "genius": 9207,
      "sales": 9208,
      "##yyo": 9209,
      "##yyy": 9210,
      "Pretending": 9211,
      "Trice": 9212,
      "Reach": 9213,
      "draws": 9214,
      "eighty": 9215,
      "conversations": 9216,
      "prophet": 9217,
      "Coast": 9218,
      "creeping": 9219,
      "autograph": 9220,
      "wounded": 9221,
      "palms": 9222,
      "Proble": 9223,
      "199": 9224,
      "powers": 9225,
      "Ringo": 9226,
      "thicker": 9227,
      "sneakers": 9228,
      "Remind": 9229,
      "##restrial": 9230,
      "wandering": 9231,
      "##iiiiiiii": 9232,
      "raging": 9233,
      "Memphis": 9234,
      "chapter": 9235,
      "pigs": 9236,
      "stabbed": 9237,
      "Crimin": 9238,
      "Guns": 9239,
      "Winter": 9240,
      "paved": 9241,
      "##ternity": 9242,
      "Speedom": 9243,
      "absolutely": 9244,
      "##annel": 9245,
      "issue": 9246,
      "credit": 9247,
      "overdose": 9248,
      "September": 9249,
      "ARTP": 9250,
      "##helle": 9251,
      "tickets": 9252,
      "Express": 9253,
      "teardrops": 9254,
      "proceed": 9255,
      "##write": 9256,
      "effort": 9257,
      "lemme": 9258,
      "Rihanna": 9259,
      "Amazing": 9260,
      "WHOA": 9261,
      "baggage": 9262,
      "chimney": 9263,
      "Farewell": 9264,
      "ARTPOP": 9265,
      ",\"[": 9266,
      "25": 9267,
      "AM": 9268,
      "Action": 9269,
      "Bart": 9270,
      "Cole": 9271,
      "Egypt": 9272,
      "Gon": 9273,
      "Ground": 9274,
      "Gab": 9275,
      "Great": 9276,
      "HEY": 9277,
      "Jag": 9278,
      "Jew": 9279,
      "Jenny": 9280,
      "LP": 9281,
      "Mine": 9282,
      "Name": 9283,
      "Pal": 9284,
      "Porsche": 9285,
      "Rab": 9286,
      "Roman": 9287,
      "Vir": 9288,
      "\\'": 9289,
      "ahhh": 9290,
      "cunt": 9291,
      "cuss": 9292,
      "der": 9293,
      "eternity": 9294,
      "gats": 9295,
      "hm": 9296,
      "hater": 9297,
      "houses": 9298,
      "les": 9299,
      "lun": 9300,
      "mund": 9301,
      "pose": 9302,
      "peoples": 9303,
      "ut": 9304,
      "woh": 9305,
      "www": 9306,
      "wealth": 9307,
      "##mast": 9308,
      "##ald": 9309,
      "##aled": 9310,
      "##iable": 9311,
      "##ued": 9312,
      "##udy": 9313,
      "##uated": 9314,
      "##rad": 9315,
      "##bes": 9316,
      "##bal": 9317,
      "##gar": 9318,
      "##gade": 9319,
      "##ED": 9320,
      "##hol": 9321,
      "##OR": 9322,
      "##IP": 9323,
      "##inct": 9324,
      "##onies": 9325,
      "meow": 9326,
      "##eeze": 9327,
      "lifesaver": 9328,
      "beware": 9329,
      "stim": 9330,
      "stared": 9331,
      "rebel": 9332,
      "whoop": 9333,
      "##iddy": 9334,
      "##idote": 9335,
      "fors": 9336,
      "##chucker": 9337,
      "shar": 9338,
      "##illing": 9339,
      "uptown": 9340,
      "dose": 9341,
      "##omé": 9342,
      "goat": 9343,
      "##adays": 9344,
      "##auc": 9345,
      "soap": 9346,
      "##opa": 9347,
      "nest": 9348,
      "##offin": 9349,
      "##icans": 9350,
      "##ications": 9351,
      "worms": 9352,
      "chills": 9353,
      "Whooo": 9354,
      "background": 9355,
      "##inky": 9356,
      "##immer": 9357,
      "##imony": 9358,
      "clutch": 9359,
      "##aka": 9360,
      "##anda": 9361,
      "abuse": 9362,
      "Mystery": 9363,
      "##aph": 9364,
      "eyel": 9365,
      "Lies": 9366,
      "Whatcha": 9367,
      "overs": 9368,
      "overload": 9369,
      "brr": 9370,
      "swine": 9371,
      "sworn": 9372,
      "##iper": 9373,
      "scandal": 9374,
      "drummer": 9375,
      "Dog": 9376,
      "Chop": 9377,
      "twirl": 9378,
      "undert": 9379,
      "##oola": 9380,
      "guilt": 9381,
      "happier": 9382,
      "argu": 9383,
      "glist": 9384,
      "cheated": 9385,
      "poke": 9386,
      "killa": 9387,
      "Ash": 9388,
      "disp": 9389,
      "display": 9390,
      "##lessly": 9391,
      "##sons": 9392,
      "gras": 9393,
      "sounding": 9394,
      "learnt": 9395,
      "Seem": 9396,
      "freaking": 9397,
      "mayn": 9398,
      "wins": 9399,
      "##umblin": 9400,
      "madre": 9401,
      "Uncle": 9402,
      "##loe": 9403,
      "leaders": 9404,
      "priest": 9405,
      "##coat": 9406,
      "paying": 9407,
      "Having": 9408,
      "Waitin": 9409,
      "##iban": 9410,
      "Locked": 9411,
      "dealt": 9412,
      "Compl": 9413,
      "Compton": 9414,
      "syll": 9415,
      "penet": 9416,
      "spect": 9417,
      "destruction": 9418,
      "snowman": 9419,
      "Mariah": 9420,
      "Walkin": 9421,
      "dusty": 9422,
      "suga": 9423,
      "obl": 9424,
      "beefin": 9425,
      "drowned": 9426,
      "views": 9427,
      "echoes": 9428,
      "pumping": 9429,
      "Carol": 9430,
      "##wwww": 9431,
      "Pretend": 9432,
      "Monica": 9433,
      "spiritual": 9434,
      "pinch": 9435,
      "tower": 9436,
      "puke": 9437,
      "aahh": 9438,
      "pinky": 9439,
      "Readymade": 9440,
      "flaws": 9441,
      "Raised": 9442,
      "197": 9443,
      "dimes": 9444,
      "stressin": 9445,
      "privacy": 9446,
      "national": 9447,
      "Screamin": 9448,
      "turnt": 9449,
      "drifting": 9450,
      "Learning": 9451,
      "devotion": 9452,
      "##door": 9453,
      "Simple": 9454,
      "balance": 9455,
      "pearl": 9456,
      "inspire": 9457,
      "sleigh": 9458,
      "Richard": 9459,
      "bouncin": 9460,
      "whistles": 9461,
      "Macavity": 9462,
      "annoy": 9463,
      "Secret": 9464,
      "Rocket": 9465,
      "Psych": 9466,
      "Susan": 9467,
      "Salomé": 9468,
      "stumbled": 9469,
      "tonta": 9470,
      "muscle": 9471,
[...]
